#include "layer_1_weights.h"

unsigned char layer_1_weights[] = {
  0x91, 0x06, 0xa0, 0xbd, 0x0a, 0x34, 0x3c, 0x3e, 0xe8, 0x47, 0xb6, 0x3e,
  0x1a, 0x8e, 0xcb, 0x3e, 0xc4, 0x6d, 0xc6, 0x3e, 0x9d, 0x91, 0x3e, 0xbd,
  0x76, 0xa9, 0x15, 0x3e, 0x18, 0xeb, 0x91, 0xbe, 0x1a, 0xbf, 0x8e, 0xbe,
  0x31, 0x49, 0x67, 0x3e, 0x4f, 0x55, 0xca, 0x3d, 0xbb, 0xfb, 0x09, 0x3e,
  0x1f, 0x88, 0x93, 0x3e, 0xb5, 0x68, 0x8d, 0x3e, 0x4f, 0xf1, 0xda, 0x3d,
  0x57, 0x27, 0x1e, 0xbf, 0xb8, 0x1e, 0x77, 0xbe, 0x20, 0xb8, 0x51, 0xbc,
  0x4c, 0x6c, 0x45, 0x3e, 0x85, 0x0e, 0xce, 0x3e, 0x79, 0x45, 0x42, 0xbb,
  0xcc, 0xfc, 0xc5, 0xbe, 0xbf, 0x53, 0x43, 0x3e, 0x42, 0x09, 0xe4, 0x3e,
  0x42, 0xc3, 0xf3, 0xbd, 0x5a, 0x8c, 0xd0, 0xbe, 0x93, 0xcc, 0x86, 0x3d,
  0x0c, 0x81, 0xc6, 0xbd, 0x00, 0x05, 0x9f, 0xbe, 0xa3, 0x10, 0x4c, 0x3e,
  0x21, 0x97, 0x8a, 0xbe, 0x4e, 0xb6, 0x96, 0x3e, 0x7a, 0xd1, 0xbd, 0x3e,
  0x8b, 0xbd, 0x9e, 0x3e, 0xf6, 0x9d, 0xb8, 0x3e, 0x2a, 0x85, 0x19, 0xbe,
  0x9a, 0x52, 0xed, 0x3a, 0x27, 0xd0, 0x8c, 0xbe, 0x87, 0x55, 0x36, 0xbe,
  0x49, 0x39, 0x60, 0x3e, 0x96, 0xf7, 0x08, 0x3f, 0x64, 0x8a, 0xc2, 0x3e,
  0xb1, 0xad, 0x71, 0xbe, 0x09, 0xd4, 0x9b, 0xbe, 0x8a, 0xb3, 0x37, 0xbe,
  0xa4, 0xc9, 0x66, 0xbe, 0xa8, 0x71, 0xb3, 0x3e, 0xa8, 0x5b, 0x0e, 0xbe,
  0xdb, 0xad, 0x37, 0xbe, 0x4f, 0x4a, 0xe0, 0x3e, 0x1e, 0x39, 0xbf, 0x3c,
  0x58, 0x09, 0x0a, 0x3e, 0x74, 0x5b, 0x5d, 0x3e, 0x9f, 0x51, 0x05, 0x3e,
  0x0d, 0xba, 0x55, 0x3d, 0x9d, 0x79, 0xe7, 0x3c, 0x05, 0x0a, 0xa4, 0xbe,
  0xd0, 0xb5, 0x03, 0x3f, 0xcb, 0xf1, 0xd9, 0x3c, 0x6d, 0x40, 0x39, 0xbf,
  0xbf, 0xef, 0x99, 0x3e, 0xce, 0x21, 0x00, 0x3f, 0x54, 0xc9, 0x02, 0x3e,
  0x8f, 0x2c, 0x0a, 0x3e, 0x8d, 0xff, 0x85, 0x3e, 0x6e, 0xb1, 0x91, 0x3e,
  0x5e, 0x85, 0x34, 0x3e, 0xf8, 0x64, 0xc0, 0x3d, 0xde, 0xf1, 0x12, 0x3e,
  0x8c, 0xbe, 0xeb, 0xbe, 0x63, 0xb5, 0x07, 0xbf, 0x2d, 0x0f, 0xc1, 0xbe,
  0xf6, 0x91, 0xfc, 0x3a, 0x8e, 0x18, 0x65, 0xbe, 0xce, 0x82, 0x41, 0x3e,
  0x34, 0x47, 0x9b, 0x3e, 0x71, 0x64, 0xc8, 0xbd, 0x18, 0x5e, 0x4c, 0x3e,
  0xe3, 0x9c, 0xc3, 0xbe, 0x47, 0x17, 0x81, 0x3d, 0x47, 0xba, 0xb7, 0x3d,
  0x3b, 0x0a, 0xb0, 0x3e, 0x42, 0x9e, 0x67, 0x3e, 0xd8, 0xf4, 0xce, 0xbd,
  0x1c, 0x1a, 0x6b, 0xbe, 0xfd, 0xc1, 0x9d, 0xbe, 0x23, 0x9c, 0xd6, 0x3e,
  0x71, 0x54, 0x0d, 0xbf, 0x91, 0x1d, 0x9c, 0x3e, 0x3f, 0xd0, 0xc4, 0x3d,
  0xfa, 0xe3, 0xc1, 0x3c, 0x12, 0x1c, 0x49, 0x3e, 0x88, 0xd2, 0x1d, 0xbe,
  0x48, 0xd4, 0xa5, 0x3c, 0x60, 0x88, 0xec, 0x3e, 0x96, 0x51, 0x86, 0xbe,
  0x64, 0x41, 0xb0, 0xbe, 0x53, 0x6d, 0x94, 0x3e, 0xf8, 0x56, 0xb1, 0x3e,
  0xab, 0xfe, 0x9c, 0x3e, 0x9c, 0xd0, 0xbe, 0xbd, 0x75, 0x88, 0xc9, 0xbe,
  0x28, 0x3b, 0xb3, 0x3e, 0x7f, 0x6e, 0x81, 0x3e, 0x76, 0x61, 0x5e, 0xbe,
  0xde, 0x34, 0xcb, 0x3a, 0x08, 0x9f, 0xbe, 0x3e, 0x10, 0x53, 0x16, 0x3e,
  0xaa, 0x28, 0x46, 0xbe, 0xe8, 0x93, 0xa3, 0xbc, 0x65, 0x51, 0x91, 0x3e,
  0x9b, 0x85, 0x6d, 0xbe, 0x25, 0x24, 0x01, 0x3e, 0x96, 0x10, 0xc6, 0x3e,
  0x3a, 0xea, 0x84, 0x3c, 0x50, 0x70, 0x0f, 0x3e, 0x24, 0xd0, 0xa2, 0x3e,
  0x81, 0x70, 0xd2, 0x3d, 0xea, 0x96, 0xb8, 0x3e, 0x87, 0x4c, 0xee, 0x3e,
  0x21, 0x1a, 0x00, 0xbf, 0x27, 0x58, 0x72, 0xbe, 0xeb, 0x87, 0xa9, 0x3d,
  0xe7, 0x4b, 0xd5, 0xbe, 0x60, 0x05, 0x1d, 0xbf, 0xae, 0x8c, 0x77, 0xbe,
  0xe1, 0xd5, 0xc6, 0xbe, 0xa1, 0x25, 0x01, 0x3e, 0x8e, 0x31, 0xdc, 0x3e,
  0x93, 0x45, 0xfb, 0xbd, 0x73, 0xae, 0x25, 0x3f, 0xdb, 0x30, 0x7c, 0xbe,
  0x87, 0xc2, 0x74, 0x3e, 0x1c, 0x0a, 0xd9, 0x3d, 0x46, 0x90, 0x9f, 0xbe,
  0xa7, 0x0b, 0xa8, 0x3e, 0x0a, 0xca, 0x9b, 0x3d, 0x3a, 0x9a, 0x3f, 0xbd,
  0x91, 0xc0, 0x0a, 0xbe, 0x1e, 0x2b, 0xa7, 0x3e, 0x0b, 0x2e, 0x8d, 0x3e,
  0xee, 0x84, 0xe4, 0x3d, 0x0c, 0xec, 0x6f, 0xbe, 0x53, 0xfd, 0xc3, 0x3c,
  0xcc, 0xae, 0x8a, 0xbe, 0x95, 0xe0, 0xa7, 0xbe, 0xcc, 0xb4, 0xea, 0xbe,
  0xb9, 0x6f, 0xda, 0x3e, 0x79, 0x49, 0xc0, 0x3e, 0x68, 0x4f, 0x9a, 0x3e,
  0x47, 0x2c, 0xa8, 0x3d, 0x93, 0x20, 0x82, 0x3d, 0x58, 0x14, 0x8b, 0x3e,
  0x1d, 0xc6, 0xf4, 0xbe, 0xfe, 0xcd, 0x40, 0xbf, 0xee, 0xd6, 0x5a, 0xbe,
  0xc1, 0xec, 0xee, 0x3e, 0x86, 0xce, 0x2b, 0x3e, 0x16, 0x87, 0xc8, 0x3e,
  0x6b, 0x67, 0x45, 0x3e, 0x88, 0x8c, 0xc6, 0x3e, 0x72, 0x93, 0x25, 0xbe,
  0x1a, 0xd7, 0xb7, 0x3e, 0x5f, 0x61, 0x95, 0x3e, 0xcf, 0x9e, 0x71, 0xbd,
  0x7f, 0xfc, 0xa5, 0x3e, 0xf3, 0x8a, 0x2e, 0x3e, 0x04, 0x35, 0x1b, 0x3e,
  0xf2, 0x5e, 0x2a, 0xbd, 0x2a, 0xbb, 0x04, 0xbf, 0xdd, 0x6b, 0x97, 0xbd,
  0x64, 0x21, 0x26, 0xbf, 0xbe, 0xea, 0x1a, 0xbf, 0xfe, 0x0e, 0xec, 0xbe,
  0x3f, 0x94, 0x2d, 0x3e, 0x4f, 0xe2, 0xdb, 0x3d, 0x12, 0xd8, 0x93, 0xbd,
  0x1b, 0xc4, 0xd4, 0x3e, 0xfe, 0x2b, 0xa9, 0x3e, 0xfd, 0xdb, 0xc1, 0x3e,
  0xea, 0xd3, 0x75, 0xbd, 0xe2, 0x02, 0x90, 0x3e, 0xd5, 0x29, 0xaf, 0x3e,
  0x16, 0xcc, 0xbc, 0x3e, 0x2e, 0x9f, 0x20, 0x3e, 0x79, 0x98, 0x5c, 0xbe,
  0xd9, 0xda, 0x5f, 0x3c, 0x51, 0x5c, 0x9b, 0xbe, 0x22, 0x85, 0xa1, 0xbc,
  0xd7, 0x21, 0x82, 0x3e, 0x5e, 0x01, 0xa1, 0x3d, 0x00, 0xa4, 0x93, 0xbe,
  0x1a, 0x88, 0xe7, 0xbd, 0xda, 0x9d, 0x6b, 0x3e, 0xc1, 0x37, 0xe5, 0x3e,
  0x14, 0x31, 0x59, 0xbd, 0x46, 0xfe, 0x70, 0xbe, 0x85, 0xb6, 0x32, 0xbe,
  0xc1, 0x81, 0x19, 0xbe, 0xcd, 0x26, 0x99, 0x3e, 0x56, 0x97, 0xbd, 0x3e,
  0xc7, 0xe3, 0x9a, 0x3e, 0x52, 0xa9, 0x94, 0x3e, 0x5d, 0xc7, 0x1e, 0xbe,
  0x18, 0xd1, 0x08, 0xbe, 0x22, 0xd8, 0x21, 0xbf, 0x5a, 0x21, 0x8a, 0xbe,
  0xb7, 0xf4, 0x3c, 0x3c, 0x52, 0x1e, 0xda, 0x3c, 0x30, 0x0c, 0x48, 0x3e,
  0x3a, 0x2d, 0x9b, 0x3e, 0x9d, 0x25, 0xc7, 0x3e, 0x58, 0xf4, 0x84, 0x3e,
  0xdc, 0xf9, 0xa0, 0xbe, 0x46, 0x1b, 0xf3, 0xbe, 0x90, 0xaa, 0x7c, 0xbe,
  0xb7, 0xf3, 0x69, 0xbe, 0xa8, 0xf1, 0xa5, 0x3e, 0xec, 0xa9, 0x85, 0x3e,
  0xb9, 0x62, 0x96, 0x3e, 0x42, 0xf1, 0x3d, 0x3e, 0xf7, 0x65, 0x2a, 0xbe,
  0xd1, 0x3f, 0x2f, 0x3e, 0xb3, 0xea, 0xe2, 0xbc, 0xe0, 0xbd, 0x33, 0xbb,
  0xf5, 0xb8, 0x4c, 0xbe, 0x1e, 0x4f, 0xba, 0x3e, 0x29, 0xac, 0x25, 0xbe,
  0x26, 0x74, 0xd0, 0xbd, 0x9c, 0x1d, 0xea, 0x3e, 0xd9, 0x75, 0xd1, 0xbe,
  0xad, 0x5c, 0xb9, 0x3d, 0x95, 0xd2, 0x5a, 0x3e, 0xb6, 0x06, 0xa7, 0xbe,
  0x33, 0x28, 0x7c, 0x3d, 0x54, 0xeb, 0x07, 0xbf, 0x9e, 0x4b, 0x3c, 0x3b,
  0xf7, 0x9e, 0xf5, 0xbc, 0xac, 0xa0, 0xc1, 0x3e, 0x0e, 0x37, 0x47, 0x3e,
  0xbc, 0xe7, 0xc6, 0x3e, 0x34, 0x93, 0x61, 0xbd, 0x09, 0x01, 0x42, 0xbe,
  0x10, 0xe7, 0xc7, 0x3e, 0x64, 0xbd, 0xa5, 0xbe, 0xcc, 0x99, 0x0f, 0xbf,
  0x72, 0x03, 0x46, 0xbf, 0x81, 0x0d, 0x51, 0xbf, 0x7a, 0xdc, 0x3a, 0x3e,
  0xb1, 0x5f, 0xbc, 0xbe, 0x82, 0x33, 0x91, 0x3e, 0x0d, 0x6f, 0xe0, 0x3e,
  0x99, 0x56, 0xca, 0x3d, 0xca, 0x18, 0xa8, 0x3e, 0x9b, 0xaa, 0x3d, 0xbd,
  0x05, 0x3d, 0xa5, 0x3e, 0xcc, 0x2e, 0x8f, 0x3e, 0xa9, 0x99, 0x1b, 0xbf,
  0x1b, 0xbc, 0x99, 0x3e, 0x7e, 0x0d, 0x9a, 0x3d, 0x32, 0x07, 0x10, 0xbf,
  0x18, 0x31, 0x76, 0xbe, 0xf6, 0x95, 0x6f, 0x3e, 0x8e, 0x72, 0x10, 0x3e,
  0x6a, 0x56, 0x81, 0xbd, 0x40, 0x07, 0x88, 0x3e, 0xaf, 0x86, 0x71, 0x3e,
  0x32, 0x0e, 0x20, 0x3e, 0x8b, 0xfe, 0x82, 0x3e, 0x8b, 0xb0, 0x4a, 0x3e,
  0x1f, 0xd3, 0xc7, 0xbc, 0x64, 0xd5, 0xc8, 0xbe, 0xd3, 0x1d, 0xc1, 0x3e,
  0xca, 0xa9, 0xe0, 0xbe, 0xd4, 0x5e, 0xa1, 0xbe, 0x01, 0x8d, 0xdd, 0x3e,
  0x38, 0xfd, 0x64, 0xbe, 0xd8, 0x04, 0x6c, 0x3c, 0xed, 0x37, 0x99, 0x3e,
  0x59, 0x48, 0x87, 0x3d, 0xea, 0xc5, 0xf6, 0x3e, 0x38, 0x78, 0xef, 0x3e,
  0x1c, 0x0b, 0x15, 0xbf, 0xb6, 0xf3, 0x5d, 0xbd, 0xa6, 0xfa, 0xf6, 0x3e,
  0xbf, 0xd2, 0xe6, 0xbe, 0xe6, 0xfb, 0x9a, 0xbe, 0x8b, 0x5d, 0xc8, 0x3e
};
unsigned int layer_1_weights_len = 1152;
