#include "layer_3_bias.h"

unsigned char layer_3_bias[] = {
  0x2a, 0x2f, 0x1f, 0xbe, 0x69, 0x4e, 0x54, 0xbd, 0x3c, 0x30, 0xb1, 0xbd,
  0x2a, 0x35, 0x03, 0x3d, 0xe1, 0x78, 0x05, 0x3b, 0x8e, 0x58, 0x60, 0xbd,
  0x18, 0x3a, 0x9f, 0xbc, 0xe1, 0xb3, 0x25, 0x3c, 0xfb, 0xd8, 0xa5, 0xbc,
  0x93, 0xd2, 0x5a, 0xbd, 0xb2, 0x44, 0x51, 0xbd, 0x22, 0x2c, 0xe1, 0xbc,
  0xe1, 0xf2, 0x9a, 0x3c, 0xa0, 0xdc, 0x97, 0xbc, 0x96, 0x58, 0x0e, 0x3d,
  0x61, 0x49, 0xac, 0x3c, 0x64, 0x86, 0xde, 0x3d, 0xfb, 0x35, 0x2f, 0xbd,
  0x39, 0x0f, 0xf7, 0xbb, 0x9c, 0xeb, 0x23, 0xbd, 0x65, 0xd1, 0x3d, 0xbd,
  0xf7, 0x32, 0xe8, 0x3d, 0xfd, 0xc7, 0xa7, 0xbd, 0xf4, 0x91, 0x13, 0xbd,
  0xc8, 0x8c, 0xda, 0xbd, 0xb1, 0x7c, 0x4f, 0x3b, 0xda, 0x43, 0xa7, 0xbc,
  0x6d, 0x84, 0x29, 0x3c, 0x01, 0xb3, 0x53, 0x3d, 0x81, 0x25, 0x51, 0xbc,
  0x5c, 0x79, 0xd8, 0x3d, 0x30, 0x83, 0x9a, 0xbd, 0xab, 0xf9, 0xad, 0x3c,
  0x30, 0x98, 0x87, 0xbd, 0x9e, 0xe2, 0x9a, 0x3c, 0x19, 0x66, 0xbc, 0x3c,
  0x5a, 0xa0, 0xf3, 0xbd, 0x9b, 0x79, 0x07, 0xbd, 0x88, 0xba, 0x57, 0x3c,
  0x9a, 0x84, 0x28, 0xbd, 0x62, 0xdf, 0xd7, 0xbd, 0x4c, 0xf9, 0xa1, 0xbc,
  0xb8, 0x88, 0x37, 0x3c, 0x16, 0xb9, 0x93, 0xbc, 0x5b, 0x3a, 0x0e, 0xbd,
  0xef, 0x17, 0xd7, 0xbc, 0xc8, 0xfa, 0x90, 0x3d, 0xac, 0x65, 0x98, 0x3b,
  0x62, 0xb4, 0xc1, 0x3d, 0xf7, 0x3b, 0x74, 0xbd, 0xb0, 0x4a, 0x50, 0xbd,
  0xaa, 0x1d, 0x41, 0x3e, 0x13, 0x0d, 0x33, 0x3d, 0x4f, 0x90, 0x1b, 0x3b,
  0x8f, 0x0e, 0xb7, 0xbd, 0x20, 0x6f, 0x03, 0xbc, 0x4b, 0xba, 0x52, 0xbc,
  0xd5, 0xdd, 0xd2, 0x3c, 0x8f, 0x3b, 0x6d, 0x3c, 0xce, 0x3c, 0x7e, 0xbd,
  0x2f, 0xd8, 0xdc, 0xba, 0x71, 0x94, 0x99, 0xbd, 0x8a, 0xfb, 0x20, 0xbc,
  0xbe, 0x22, 0x96, 0x39
};
unsigned int layer_3_bias_len = 256;
