#include "layer_3_weights.h"

unsigned char layer_3_weights[] = {
  0x11, 0xf1, 0x0a, 0xfe, 0xb8, 0x01, 0xfc, 0xdb, 0x0a, 0x21, 0xdd, 0x11,
  0x1c, 0xd9, 0x0f, 0x15, 0x1d, 0x10, 0x10, 0x06, 0x1a, 0xfa, 0x17, 0xdc,
  0xfd, 0x19, 0x0a, 0xfa, 0x29, 0x06, 0x2c, 0x03, 0x1c, 0xf0, 0xfa, 0xe6,
  0xbe, 0x16, 0x05, 0x05, 0xef, 0x0a, 0xfb, 0x05, 0xe9, 0xf8, 0x1b, 0xf5,
  0xd2, 0xd3, 0x21, 0xbb, 0x11, 0xfa, 0x14, 0xfb, 0x13, 0x3a, 0xf1, 0xf2,
  0x0f, 0xf8, 0x1a, 0xf8, 0x12, 0x19, 0x17, 0x09, 0xfa, 0xeb, 0xe2, 0x10,
  0x0f, 0x1b, 0xef, 0x00, 0x09, 0x20, 0xee, 0xf1, 0xe7, 0xf2, 0xec, 0xd1,
  0x0c, 0xf8, 0xf6, 0x10, 0xff, 0x16, 0xf9, 0xef, 0x18, 0xf0, 0x2b, 0x1c,
  0x28, 0x05, 0xdf, 0x1a, 0xb5, 0x05, 0x23, 0xf2, 0x11, 0x22, 0x0b, 0x18,
  0x13, 0xcc, 0x33, 0x0e, 0xf3, 0xff, 0x0a, 0xd9, 0x0a, 0x0b, 0x21, 0xf3,
  0x2a, 0x42, 0x19, 0x25, 0x4c, 0x09, 0x30, 0xf0, 0xe0, 0xd3, 0xe3, 0xec,
  0x81, 0xfb, 0xe9, 0xd5, 0xf1, 0xfa, 0xd5, 0xeb, 0xf5, 0xcb, 0xf3, 0xd8,
  0xdf, 0xed, 0xf4, 0xd4, 0xe8, 0xd7, 0xe4, 0xb3, 0xe2, 0x49, 0xdb, 0x20,
  0x0f, 0xe1, 0x41, 0xfb, 0x0c, 0xed, 0xf5, 0x0b, 0xd6, 0x11, 0x14, 0xe8,
  0xf6, 0x29, 0x0d, 0x0e, 0xfe, 0xe2, 0x12, 0xd2, 0x05, 0xf6, 0xe8, 0x13,
  0xfc, 0xe9, 0xf3, 0xe6, 0xf3, 0x38, 0xd9, 0x28, 0x0c, 0x01, 0xfe, 0xfe,
  0xf1, 0x04, 0x1c, 0x08, 0xfd, 0x21, 0x29, 0xf7, 0x01, 0x19, 0x2c, 0x21,
  0x07, 0xc4, 0x09, 0xf8, 0xf8, 0xfb, 0x06, 0xdf, 0x02, 0x02, 0xeb, 0xe8,
  0x01, 0x48, 0x08, 0xfd, 0x20, 0x0f, 0x3b, 0x19, 0xe4, 0xd9, 0xe6, 0xf7,
  0xe3, 0xf3, 0xf2, 0xde, 0xed, 0xf7, 0xc3, 0xf6, 0x0c, 0xfb, 0xeb, 0xdf,
  0xe1, 0x01, 0xe8, 0xe2, 0xf2, 0xf6, 0x07, 0xf0, 0xfc, 0x14, 0xf4, 0x02,
  0xea, 0xf7, 0x2c, 0x03, 0x1d, 0x24, 0x1c, 0xee, 0x2e, 0x18, 0x03, 0x29,
  0x02, 0xfe, 0x13, 0xf8, 0xf3, 0x2f, 0x18, 0xf9, 0x18, 0x1c, 0x16, 0xf5,
  0x0c, 0x06, 0x24, 0x23, 0x05, 0x28, 0x01, 0x0b, 0x27, 0xfd, 0x10, 0xfa,
  0x1d, 0x29, 0x03, 0xf4, 0x17, 0xe4, 0xed, 0x56, 0xde, 0xe8, 0x02, 0xe0,
  0xf7, 0x4d, 0x16, 0xff, 0xc2, 0xf7, 0x2d, 0xce, 0x33, 0x25, 0x66, 0x33,
  0x0c, 0xee, 0xba, 0x26, 0xd4, 0x07, 0xf4, 0x0f, 0xfc, 0x5a, 0x07, 0xe0,
  0x44, 0xbc, 0xd1, 0x36, 0xfa, 0xfe, 0x03, 0x05, 0xe5, 0x24, 0xec, 0x21,
  0x02, 0xcb, 0x2d, 0xe8, 0xee, 0x23, 0x2b, 0x4f, 0xca, 0x81, 0xcc, 0xd3,
  0xda, 0xc2, 0xc4, 0xf3, 0x19, 0x3f, 0x20, 0xfa, 0xf4, 0xe1, 0xe5, 0x13,
  0xed, 0xdd, 0xe4, 0xf2, 0x0f, 0x39, 0x1c, 0xf1, 0xda, 0xdf, 0x1f, 0xbc,
  0x03, 0xf0, 0x1a, 0x2f, 0xf3, 0xfd, 0xce, 0xc0, 0xfd, 0xe2, 0xf8, 0x26,
  0xf5, 0xc8, 0xe7, 0x1a, 0x5d, 0x0c, 0xff, 0xc9, 0xee, 0x14, 0xe7, 0xfa,
  0xf1, 0xdf, 0xd9, 0xee, 0x5d, 0x5c, 0xf8, 0x3b, 0x10, 0x12, 0xdf, 0xd6,
  0xf6, 0x89, 0x2d, 0x2f, 0xdb, 0xeb, 0xb6, 0xeb, 0x07, 0xe7, 0x1c, 0x24,
  0x64, 0x06, 0x34, 0x09, 0xee, 0xec, 0xd7, 0xf3, 0x0b, 0xfc, 0xfa, 0xfc,
  0x46, 0x40, 0xd9, 0x51, 0xde, 0x0f, 0x10, 0x1f, 0xeb, 0xba, 0x24, 0x21,
  0xf0, 0x23, 0xba, 0xe7, 0x00, 0x04, 0x0d, 0xf7, 0x4d, 0x0d, 0x37, 0x13,
  0xf7, 0xe6, 0xf6, 0x1c, 0x04, 0x24, 0xfb, 0x18, 0x38, 0x37, 0x19, 0x5a,
  0xe7, 0xfe, 0x04, 0x28, 0x14, 0x12, 0x27, 0x18, 0x11, 0x07, 0xea, 0xc3,
  0x35, 0xf2, 0x16, 0x0e, 0x27, 0xe1, 0x44, 0xf8, 0x13, 0xeb, 0x26, 0x1e,
  0xfd, 0x06, 0x33, 0x2b, 0xf1, 0xcb, 0x1f, 0xc1, 0x1c, 0x11, 0x14, 0xf6,
  0x3f, 0xfb, 0xef, 0xce, 0x1f, 0x1e, 0xc5, 0x27, 0xfc, 0x11, 0x18, 0xd4,
  0x23, 0xc3, 0xf8, 0x15, 0x28, 0xfe, 0x2f, 0xff, 0xde, 0x0b, 0x0f, 0x34,
  0xdf, 0xcd, 0x2a, 0xed, 0x0c, 0x3a, 0xfc, 0x2a, 0xeb, 0xc5, 0xdb, 0xcf,
  0xf5, 0x07, 0xce, 0x13, 0x27, 0x0b, 0x1e, 0xe6, 0x1f, 0xf4, 0x20, 0xf5,
  0x0f, 0x36, 0x09, 0x21, 0xea, 0x0e, 0x06, 0x20, 0xed, 0xed, 0xf5, 0x0b,
  0x04, 0xf5, 0xfb, 0x00, 0xfb, 0x00, 0xdd, 0x1a, 0x0a, 0xd5, 0xcd, 0x0e,
  0x1d, 0x19, 0x1b, 0x03, 0x5f, 0xfc, 0x28, 0x10, 0x25, 0xb7, 0xf0, 0x10,
  0x34, 0x2c, 0xdb, 0x10, 0x2c, 0x3a, 0x0d, 0x11, 0x29, 0x06, 0xe1, 0x18,
  0xff, 0xa8, 0xfc, 0xbe, 0xd0, 0x03, 0xf4, 0xf4, 0x23, 0x23, 0x18, 0xe0,
  0x64, 0x2f, 0x31, 0x11, 0xf9, 0xd0, 0x3c, 0x35, 0x14, 0xf9, 0x08, 0x01,
  0x3f, 0xef, 0x15, 0x1a, 0x10, 0x34, 0xf3, 0x2e, 0x10, 0xfe, 0xf9, 0xf8,
  0x12, 0x2a, 0xe5, 0xd2, 0x3b, 0x12, 0xfd, 0x08, 0x7b, 0x1c, 0x13, 0x1a,
  0x01, 0x08, 0x00, 0x05, 0xf0, 0xcb, 0x22, 0x1c, 0x19, 0x2d, 0x0f, 0x1b,
  0x18, 0x16, 0x23, 0x21, 0x0f, 0xf7, 0x22, 0x3b, 0x10, 0x1d, 0xe7, 0xf3,
  0xde, 0x0b, 0x22, 0xf0, 0x18, 0xfa, 0xf7, 0x0f, 0x00, 0xd2, 0xf2, 0x0b,
  0xd8, 0x3e, 0xf4, 0x28, 0xdd, 0xdf, 0xe6, 0x20, 0xd4, 0x08, 0xde, 0xde,
  0xeb, 0xa3, 0xe3, 0xc2, 0xc2, 0x12, 0xdd, 0x25, 0x05, 0x08, 0x1a, 0xc1,
  0x6d, 0xc0, 0xe2, 0x0f, 0xda, 0x0c, 0xe7, 0xe5, 0xc4, 0x27, 0xfc, 0x04,
  0xd1, 0xa5, 0x11, 0x29, 0x01, 0x2a, 0x29, 0x1e, 0x00, 0x9f, 0xe3, 0xd5,
  0xeb, 0xee, 0x81, 0x04, 0x05, 0xfb, 0xe3, 0xf4, 0xd2, 0xd4, 0x08, 0xf0,
  0xe8, 0x32, 0xf1, 0xe2, 0xed, 0xef, 0xe3, 0xdf, 0xca, 0xbf, 0x10, 0xfb,
  0xf7, 0xe6, 0x37, 0xfb, 0xf4, 0xde, 0xe6, 0x69, 0x18, 0xd1, 0xf7, 0x01,
  0x0f, 0x1f, 0x0d, 0xdf, 0x06, 0x11, 0x1b, 0x1d, 0xf8, 0xd1, 0xec, 0x3d,
  0xf5, 0x2a, 0xe3, 0x0d, 0x14, 0x1b, 0x1d, 0x0c, 0x25, 0x06, 0xf2, 0xff,
  0xf5, 0xeb, 0x10, 0xd9, 0x2c, 0xe9, 0xf9, 0x02, 0x08, 0xe6, 0xc7, 0x14,
  0x00, 0x13, 0xef, 0xfc, 0x02, 0x22, 0x08, 0xf1, 0x0a, 0xde, 0x00, 0xef,
  0x06, 0x2c, 0xfd, 0x1e, 0x09, 0xf5, 0x07, 0x03, 0xe6, 0x0e, 0x17, 0x1d,
  0x07, 0x0a, 0xde, 0xd9, 0x38, 0xf5, 0xef, 0x4e, 0x44, 0x0d, 0xd8, 0x19,
  0xe8, 0x13, 0xe0, 0xd6, 0xf9, 0xd4, 0x57, 0x39, 0x2f, 0x1a, 0x17, 0x0d,
  0x3e, 0x22, 0x33, 0x31, 0x44, 0xf9, 0x53, 0x0b, 0x0c, 0xfb, 0x01, 0xd4,
  0x0d, 0x16, 0x10, 0x02, 0xaa, 0x05, 0xf4, 0x38, 0x05, 0x18, 0xf7, 0x08,
  0x09, 0x31, 0x2f, 0xe9, 0xe4, 0xc0, 0x0d, 0xa8, 0x21, 0xf3, 0x12, 0x03,
  0x1e, 0x2f, 0xd7, 0x3a, 0x19, 0xff, 0x0f, 0xf8, 0xd0, 0xe4, 0xed, 0xf2,
  0x8f, 0x03, 0xf5, 0xc4, 0xf4, 0x1e, 0xe8, 0xd9, 0x0c, 0xbe, 0xeb, 0xf7,
  0xee, 0xd6, 0x0a, 0xf4, 0xe2, 0xeb, 0xbf, 0xb0, 0xdb, 0x37, 0xf1, 0x32,
  0xf3, 0xff, 0x2f, 0x1e, 0x0b, 0xe0, 0xc7, 0x1d, 0xa4, 0xfa, 0xfe, 0xfa,
  0xec, 0xf7, 0xcc, 0xdb, 0x27, 0xb3, 0x15, 0x02, 0x13, 0x02, 0x19, 0x05,
  0xfb, 0xf8, 0x06, 0xe0, 0x14, 0x05, 0xfc, 0x59, 0x05, 0xfc, 0x30, 0xef,
  0x05, 0xf2, 0xd8, 0x2f, 0x30, 0x22, 0xf8, 0xd3, 0xed, 0xf5, 0x03, 0xf5,
  0xfe, 0xda, 0xfe, 0xe5, 0x14, 0x2f, 0xd2, 0x12, 0xe8, 0xf8, 0x04, 0xe7,
  0xf2, 0x15, 0x16, 0xf3, 0xf9, 0xf3, 0xe4, 0xcb, 0x06, 0x24, 0xf7, 0x0e,
  0xde, 0x25, 0xfd, 0xe9, 0x14, 0xd0, 0x03, 0xf8, 0x1f, 0xd3, 0x0f, 0x06,
  0xfa, 0x01, 0xe0, 0xfe, 0xf5, 0xd9, 0xf4, 0x1a, 0x1f, 0x31, 0xe1, 0xec,
  0xf6, 0x31, 0x22, 0xee, 0x12, 0xe1, 0xf5, 0xfa, 0xc9, 0x19, 0x2c, 0x02,
  0x0d, 0xcf, 0x19, 0x22, 0xfe, 0x01, 0x09, 0xfd, 0x13, 0x04, 0x0b, 0xf5,
  0x1c, 0x10, 0xd6, 0x0c, 0x12, 0x1c, 0xf4, 0xfe, 0x20, 0x15, 0x02, 0xe4,
  0x1b, 0x54, 0x1c, 0xc5, 0x69, 0xe6, 0xf9, 0x3b, 0x08, 0xf4, 0x0a, 0xe9,
  0xdf, 0x41, 0x00, 0x09, 0x02, 0x05, 0x27, 0xcb, 0x0d, 0x06, 0x51, 0x42,
  0xfe, 0x03, 0xfb, 0xfc, 0x0f, 0xf9, 0x81, 0x03, 0xe5, 0x1d, 0x12, 0xe4,
  0xca, 0xe2, 0xc4, 0x01, 0x04, 0x27, 0xe9, 0xe6, 0x24, 0x1d, 0xdf, 0xf4,
  0xf4, 0xc3, 0xfa, 0xc4, 0xe0, 0xbc, 0xf2, 0x12, 0xf6, 0x02, 0x96, 0xf6,
  0xd6, 0x17, 0x1e, 0x36, 0x1e, 0xf8, 0xfd, 0xec, 0xf7, 0x09, 0x0c, 0x1c,
  0xdc, 0xcb, 0x03, 0x18, 0xcb, 0x0d, 0xfe, 0x12, 0x05, 0xd5, 0x08, 0xe0,
  0x1c, 0x19, 0xec, 0x08, 0xe9, 0xfe, 0x0c, 0x9e, 0x26, 0xff, 0xcd, 0xf6,
  0x10, 0xcd, 0xec, 0x4f, 0xce, 0x1b, 0x05, 0xe9, 0x39, 0x34, 0xee, 0xfb,
  0x31, 0xb8, 0x44, 0x00, 0xf6, 0x27, 0xf7, 0xb3, 0x1b, 0xee, 0x18, 0xd2,
  0x20, 0x67, 0x3a, 0x34, 0x2b, 0xfd, 0x44, 0xe6, 0x0e, 0x16, 0xdc, 0xba,
  0x14, 0xf3, 0x16, 0xf3, 0x13, 0xfe, 0x01, 0x29, 0xdf, 0xd3, 0x39, 0xe2,
  0xf1, 0xbf, 0x37, 0xd2, 0x1b, 0x06, 0x26, 0x01, 0x0a, 0x2f, 0xf7, 0x37,
  0x30, 0xf3, 0xcd, 0xb3, 0xde, 0xe1, 0xf2, 0xda, 0xd9, 0xe2, 0xfe, 0x04,
  0xda, 0xf2, 0xe0, 0xbd, 0xd3, 0x08, 0xd4, 0xb0, 0xdb, 0x0e, 0xc1, 0x43,
  0xbd, 0xe1, 0xcf, 0xd1, 0xc7, 0x13, 0xc0, 0x22, 0xcd, 0xc5, 0xe2, 0xeb,
  0x09, 0x03, 0x14, 0x0a, 0xb0, 0x0e, 0x31, 0xd8, 0xf8, 0x11, 0x1f, 0x13,
  0x19, 0xe2, 0x1c, 0x00, 0xe9, 0xdf, 0x11, 0xaf, 0x1b, 0x1f, 0xe8, 0xd1,
  0x26, 0x33, 0xfb, 0xce, 0x2b, 0xf7, 0x32, 0xf0, 0xd2, 0xcc, 0xcc, 0x12,
  0x1d, 0xec, 0xd9, 0xb8, 0x17, 0x03, 0xf6, 0xee, 0x02, 0xcc, 0xdd, 0xeb,
  0x13, 0x06, 0xd9, 0xf6, 0xd4, 0xee, 0xaa, 0xcb, 0xda, 0xfb, 0x0a, 0x04,
  0xc2, 0xfb, 0xe0, 0xee, 0x23, 0x09, 0xcf, 0x21, 0x2b, 0x24, 0x2c, 0x11,
  0xf8, 0xe9, 0xfa, 0x07, 0xf7, 0x0c, 0x2b, 0xec, 0x0e, 0x33, 0xe6, 0x28,
  0xfe, 0xfb, 0x0f, 0xff, 0x01, 0x23, 0x22, 0x0c, 0x19, 0x15, 0xde, 0xbd,
  0xe4, 0x0f, 0x0c, 0x06, 0x37, 0x0f, 0x0b, 0x0a, 0xfa, 0xea, 0x2a, 0x1a,
  0xe7, 0x0a, 0xed, 0xf7, 0x16, 0x1f, 0xf9, 0xd1, 0xf5, 0x09, 0xea, 0x29,
  0x0a, 0xcd, 0x2d, 0x81, 0xd5, 0x00, 0xc8, 0x04, 0x0d, 0x2c, 0x24, 0x1c,
  0x4a, 0xf9, 0xd4, 0x09, 0x19, 0xf9, 0x1f, 0xf0, 0xe8, 0x02, 0x1b, 0x0b,
  0xfa, 0x11, 0x1c, 0xbd, 0x2f, 0x28, 0x32, 0x2b, 0x18, 0xf3, 0x31, 0xc4,
  0xf2, 0x0a, 0x0e, 0x21, 0x09, 0x09, 0x04, 0x0e, 0x15, 0xfe, 0xfd, 0xf5,
  0x1a, 0x37, 0x57, 0x10, 0x02, 0xc2, 0x1d, 0x0d, 0x04, 0xd6, 0xf5, 0xf8,
  0x1d, 0x17, 0xd2, 0x0a, 0x0a, 0x2b, 0x1e, 0xea, 0xf3, 0x01, 0xed, 0x29,
  0xf8, 0x06, 0xc1, 0x3a, 0x29, 0x24, 0xf7, 0xf3, 0x0d, 0xef, 0xe3, 0xf8,
  0x2c, 0xad, 0x0a, 0xed, 0x13, 0xfe, 0xe2, 0xee, 0x17, 0xd1, 0x0d, 0x06,
  0xee, 0x03, 0x27, 0x3f, 0xef, 0x0d, 0x15, 0xdd, 0x1c, 0xd9, 0xdc, 0x09,
  0xf7, 0x16, 0x2b, 0xe6, 0x0c, 0xe0, 0xfd, 0x04, 0xf7, 0x08, 0x17, 0xdd,
  0x1d, 0x27, 0xff, 0x0e, 0x00, 0xd0, 0x05, 0x03, 0x2e, 0x01, 0x21, 0xfa,
  0x06, 0xfe, 0xfb, 0xf1, 0xd0, 0xe3, 0x18, 0xfc, 0xfb, 0x2f, 0x15, 0xdb,
  0x27, 0x22, 0x20, 0x1e, 0x1b, 0xc9, 0xf7, 0x07, 0x09, 0xca, 0xf2, 0xbe,
  0xe6, 0xf3, 0xa5, 0xcc, 0x1d, 0x15, 0xd8, 0xd8, 0x03, 0x22, 0x12, 0x04,
  0x09, 0x1b, 0x2f, 0xfd, 0x6b, 0xf2, 0x0c, 0x04, 0x1d, 0x2c, 0x0c, 0xf0,
  0x07, 0x27, 0x02, 0x18, 0x04, 0xf8, 0x0b, 0x18, 0xed, 0x3b, 0x06, 0x3b,
  0xe9, 0xda, 0xeb, 0xd5, 0xdb, 0xf4, 0x0c, 0x15, 0x1a, 0x3d, 0x06, 0x08,
  0x71, 0xe9, 0xe7, 0x38, 0x0c, 0xef, 0xc8, 0x00, 0xef, 0x20, 0x01, 0xff,
  0x07, 0xd8, 0x13, 0x09, 0xf4, 0x2c, 0x10, 0x41, 0xf9, 0xec, 0xfb, 0xed,
  0xd8, 0x0d, 0xce, 0xf3, 0x20, 0x27, 0xfc, 0xf5, 0x62, 0xec, 0xc9, 0x30,
  0xfe, 0x07, 0xfc, 0x02, 0x00, 0x24, 0x1c, 0x01, 0xf2, 0xd1, 0x21, 0xdd,
  0x20, 0x06, 0x42, 0x3d, 0xe3, 0xd4, 0xea, 0xc1, 0xc6, 0xe0, 0xe7, 0x1f,
  0xe8, 0x20, 0x18, 0xc7, 0x0d, 0x16, 0xf0, 0x17, 0xfa, 0xf4, 0x21, 0xf4,
  0x03, 0x50, 0xd8, 0xf5, 0x02, 0xdb, 0xfb, 0x42, 0xfb, 0xea, 0x08, 0xee,
  0x0c, 0xfb, 0xe7, 0x1b, 0xe9, 0x0b, 0x05, 0x22, 0xda, 0xdb, 0xe5, 0x02,
  0x03, 0xfb, 0x23, 0xf5, 0xe4, 0xfc, 0xf3, 0xfd, 0xf4, 0xe6, 0xd8, 0xe9,
  0x02, 0x35, 0xe4, 0x61, 0xf0, 0xe8, 0xc1, 0xcc, 0xdf, 0xb9, 0x1a, 0x47,
  0xce, 0x08, 0xdc, 0xf0, 0xe9, 0xeb, 0xe1, 0x19, 0x7f, 0x0b, 0x10, 0xca,
  0xee, 0x06, 0xde, 0xf1, 0x0c, 0xca, 0xf9, 0xf5, 0x1a, 0x35, 0xe1, 0x58,
  0xe7, 0x18, 0xf2, 0xe6, 0xf0, 0xc9, 0x24, 0x59, 0xea, 0x09, 0xe9, 0xba,
  0x0b, 0x4d, 0x2c, 0xb0, 0x47, 0xc1, 0xd4, 0x5b, 0x1a, 0xfa, 0x09, 0xec,
  0xd2, 0x57, 0xe4, 0xf8, 0xdf, 0xbe, 0x38, 0xc3, 0x10, 0x3b, 0x3e, 0x52,
  0xe3, 0xec, 0xc0, 0x17, 0xe1, 0xc8, 0xfc, 0x15, 0xce, 0x17, 0xf2, 0xcd,
  0x2c, 0xc7, 0xc9, 0x0d, 0xe4, 0xe8, 0xcd, 0x04, 0xcc, 0x07, 0xd6, 0xda,
  0xf3, 0x06, 0xf4, 0xd9, 0xea, 0x05, 0xfd, 0xf2, 0xce, 0xe5, 0xea, 0x0d,
  0xe4, 0xc1, 0xf1, 0xf1, 0x27, 0x34, 0x2e, 0x1a, 0x5d, 0x10, 0xcf, 0x3d,
  0x12, 0x0d, 0xce, 0xd7, 0x23, 0x5c, 0x02, 0x16, 0xfe, 0x04, 0xfb, 0xf9,
  0x17, 0x14, 0x68, 0x3a, 0x09, 0x16, 0x1e, 0x28, 0xdd, 0x0e, 0x55, 0x2b,
  0xca, 0x08, 0xd0, 0x1e, 0x10, 0xd6, 0x1a, 0x18, 0xdc, 0xe1, 0xd9, 0xf9,
  0xd7, 0x27, 0xcf, 0xd7, 0x1e, 0x4e, 0xb4, 0x7f, 0xcc, 0xd8, 0xed, 0xf0,
  0xdf, 0xb5, 0x16, 0x44, 0xf7, 0xdf, 0xe2, 0x9e, 0xb2, 0xb6, 0xd8, 0xbf,
  0xe0, 0xdb, 0x0c, 0xf4, 0xbc, 0xde, 0x08, 0xcf, 0xee, 0x1d, 0xbd, 0xcb,
  0xef, 0xfd, 0xb2, 0x36, 0xba, 0xce, 0xd3, 0xc3, 0xba, 0xe3, 0xeb, 0x34,
  0xcd, 0xd3, 0xd0, 0xed, 0xde, 0x05, 0xd8, 0xdb, 0x1c, 0xd2, 0x0b, 0xf9,
  0xeb, 0xcd, 0xc9, 0xc2, 0xd9, 0x37, 0xe2, 0xd3, 0xff, 0xf7, 0xcc, 0x63,
  0xcb, 0xd4, 0x09, 0x04, 0xe9, 0xf1, 0xfb, 0x37, 0xf2, 0xd2, 0xeb, 0xf6,
  0x1e, 0x06, 0x18, 0x06, 0xfd, 0x22, 0x22, 0xe8, 0x1d, 0x19, 0x2b, 0x1f,
  0x06, 0xed, 0xfc, 0x18, 0x46, 0x33, 0x12, 0x33, 0x30, 0x1d, 0xfc, 0x0d,
  0x34, 0xef, 0x28, 0x14, 0x15, 0x21, 0x03, 0x19, 0xe6, 0xfa, 0x1c, 0x1d,
  0xdb, 0x19, 0x3a, 0xcd, 0x04, 0xeb, 0x02, 0x37, 0x23, 0xfb, 0xfe, 0x12,
  0x2e, 0x0d, 0xef, 0x1a, 0xef, 0x07, 0xe4, 0x05, 0x1e, 0xe1, 0xf9, 0xfc,
  0xf8, 0x1e, 0xe6, 0x17, 0x01, 0xee, 0x03, 0x1f, 0x1c, 0x20, 0x2f, 0xe0,
  0xdd, 0xfb, 0xe0, 0x28, 0x00, 0x11, 0x11, 0x04, 0x27, 0x33, 0x06, 0x44,
  0xfc, 0x27, 0x03, 0xea, 0x02, 0xee, 0x04, 0xe2, 0xf9, 0x18, 0x04, 0xf2,
  0x17, 0x11, 0x0d, 0x14, 0x3c, 0x0b, 0xf8, 0x06, 0xfd, 0x14, 0x07, 0x00,
  0xf3, 0xfb, 0x28, 0xf4, 0xf0, 0x00, 0xfd, 0x0c, 0x0d, 0xed, 0x31, 0x18,
  0xfe, 0x1b, 0x00, 0x08, 0xfd, 0x0d, 0xf6, 0x0b, 0xe1, 0xff, 0xfd, 0x13,
  0x05, 0xf3, 0xe8, 0xe8, 0x0e, 0x1e, 0xea, 0xe2, 0xf7, 0xd5, 0xf5, 0xf3,
  0xe7, 0x0d, 0xeb, 0xfc, 0xf6, 0xfe, 0xe9, 0xf1, 0x03, 0x07, 0x01, 0xde,
  0xfe, 0x01, 0x00, 0xfa, 0x1a, 0xec, 0x04, 0x15, 0xda, 0x1f, 0x18, 0xe5,
  0xfe, 0xf3, 0x1c, 0x03, 0x0f, 0xee, 0x18, 0xff, 0xee, 0xf1, 0xe5, 0xcc,
  0x0b, 0xfa, 0xdb, 0xef, 0x02, 0x0b, 0x05, 0xe3, 0x0d, 0x25, 0x17, 0x0d,
  0xfe, 0x0f, 0xe6, 0x0a, 0xfd, 0x02, 0xf3, 0x0b, 0xf1, 0x0a, 0x04, 0xfc,
  0xed, 0xee, 0xed, 0xef, 0x0c, 0x0f, 0x09, 0xf8, 0x0f, 0xeb, 0xfe, 0xef,
  0x09, 0xfc, 0xfc, 0x36, 0xf1, 0xf0, 0x07, 0xff, 0x09, 0x0f, 0x0b, 0x0c,
  0xfb, 0x25, 0xec, 0x07, 0xfc, 0xff, 0xf9, 0x03, 0x1b, 0xff, 0x0c, 0x08,
  0xfa, 0xf4, 0xf9, 0xe3, 0xfe, 0xf7, 0xf5, 0x08, 0x14, 0x09, 0xf0, 0xe1,
  0xee, 0x24, 0xf1, 0xf5, 0xee, 0x20, 0x43, 0xcf, 0xe4, 0x2c, 0x0e, 0xfb,
  0x1b, 0xd5, 0x3e, 0x30, 0x1c, 0x02, 0xdf, 0x12, 0x26, 0xe9, 0x07, 0xff,
  0xf1, 0x23, 0xba, 0x04, 0x0f, 0xf8, 0xe1, 0xd1, 0xfa, 0x18, 0x07, 0x1f,
  0x0e, 0x16, 0xeb, 0x0c, 0x57, 0xf1, 0xdf, 0x29, 0xfd, 0xf0, 0x0b, 0xed,
  0xdf, 0x1d, 0xfd, 0xf9, 0x00, 0x1e, 0x19, 0x26, 0x0d, 0x0d, 0x1f, 0x1f,
  0xff, 0xe2, 0x15, 0x1a, 0xf6, 0xf7, 0xcb, 0xfa, 0x0d, 0x13, 0xf9, 0x04,
  0xf7, 0xe0, 0xc2, 0x02, 0xfc, 0x07, 0xe7, 0xe9, 0xea, 0xfc, 0xec, 0x01,
  0xfe, 0xf9, 0xf3, 0x03, 0x0b, 0xe5, 0x1b, 0x11, 0xfe, 0xbd, 0xf4, 0x0f,
  0xe1, 0xff, 0xe1, 0x0a, 0xec, 0x00, 0x18, 0xfa, 0x81, 0x0a, 0x04, 0x04,
  0xe1, 0x32, 0xf8, 0x0a, 0x0a, 0xfa, 0x06, 0xfc, 0xe6, 0xcc, 0xea, 0xdd,
  0xf3, 0xf6, 0xe5, 0xd4, 0xee, 0x21, 0x03, 0xd5, 0xfb, 0x0e, 0xeb, 0x30,
  0x34, 0xff, 0x2d, 0x0a, 0x49, 0x18, 0x45, 0x03, 0x11, 0x23, 0x06, 0x0e,
  0xdc, 0x27, 0x25, 0x3f, 0x53, 0x49, 0x19, 0x6f, 0x08, 0x2b, 0x10, 0x31,
  0x07, 0xe2, 0x42, 0x05, 0xed, 0x26, 0xab, 0x0a, 0x03, 0xff, 0xf4, 0x22,
  0x2e, 0x16, 0x5f, 0xd0, 0x20, 0xd9, 0x48, 0x27, 0x2e, 0xb0, 0xe0, 0x0c,
  0x73, 0x33, 0x0f, 0x65, 0x1c, 0x0f, 0xdd, 0x08, 0x27, 0xe0, 0x03, 0x0a,
  0xd2, 0xfb, 0xf0, 0xce, 0x0b, 0xee, 0xfe, 0x14, 0xf8, 0x1d, 0x70, 0xf6,
  0x1b, 0x98, 0xee, 0x2b, 0x2d, 0xb7, 0x00, 0xeb, 0x3a, 0x2d, 0xe9, 0x74,
  0xd7, 0x06, 0xc4, 0xfe, 0xf4, 0x19, 0xe5, 0x00, 0x1e, 0x39, 0xe6, 0xa4,
  0x10, 0xfe, 0xff, 0xa4, 0x29, 0xa7, 0xfe, 0x1e, 0xd3, 0x10, 0xee, 0xdc,
  0xd2, 0x18, 0xfc, 0xe4, 0xce, 0xbf, 0x22, 0xef, 0xd7, 0xdf, 0x11, 0x1c,
  0xda, 0xe2, 0xcb, 0x31, 0xcd, 0xda, 0x9d, 0xfb, 0xf4, 0xff, 0x21, 0xc9,
  0x3d, 0xd0, 0xd8, 0x3b, 0x1c, 0x36, 0xfb, 0xc1, 0xf8, 0x2f, 0xe2, 0x13,
  0xbc, 0x9c, 0x26, 0xa6, 0xf2, 0x26, 0x1b, 0x1c, 0xd8, 0xb4, 0xc3, 0xaf,
  0xb2, 0xf4, 0x2e, 0x4f, 0xf7, 0x2c, 0x3e, 0xcd, 0x09, 0xf0, 0xd8, 0xe9,
  0xf0, 0x3b, 0x19, 0x3e, 0xdd, 0x42, 0xbf, 0x3a, 0xd6, 0x9e, 0x01, 0xcf,
  0x06, 0x21, 0xd2, 0xd9, 0xc9, 0x0e, 0xd5, 0x81, 0x0e, 0xf0, 0xbf, 0x43,
  0x27, 0xe6, 0x06, 0x15, 0x5a, 0x2d, 0xf2, 0xc2, 0x04, 0xf8, 0xed, 0xe8,
  0x18, 0xfc, 0xcd, 0x23, 0x39, 0x2d, 0xed, 0x69, 0x01, 0xd7, 0x1d, 0x1a,
  0xff, 0xb0, 0x29, 0x43, 0xec, 0x24, 0xdb, 0x9d, 0xe0, 0xef, 0x1e, 0x16,
  0x1d, 0x0e, 0x1b, 0xc2, 0xfe, 0x1c, 0xc1, 0x08, 0x1d, 0xc8, 0xff, 0xe1,
  0x32, 0x45, 0xfc, 0x5b, 0xeb, 0x03, 0xd3, 0x0d, 0x0b, 0xf9, 0x2e, 0x3d,
  0x0e, 0x1c, 0xf6, 0xb2, 0xf5, 0x0e, 0xc3, 0xfe, 0x35, 0x36, 0x37, 0xc7,
  0xd4, 0xe1, 0xe6, 0x06, 0x0f, 0xc7, 0x12, 0x03, 0x12, 0xfb, 0x03, 0x32,
  0x17, 0x15, 0x14, 0x2f, 0x0f, 0x15, 0xff, 0x11, 0x19, 0xe4, 0x4b, 0x97,
  0x0c, 0x29, 0x0b, 0x0e, 0x7f, 0x12, 0xea, 0x20, 0xfa, 0xf0, 0x13, 0xcf,
  0xff, 0xe7, 0x0a, 0x0c, 0x28, 0x67, 0xfc, 0x7c, 0x1e, 0x04, 0x58, 0x06,
  0x2c, 0x34, 0x50, 0x11, 0xe8, 0xed, 0xb0, 0xe7, 0x05, 0xf7, 0xe1, 0x11,
  0xf8, 0xef, 0xca, 0xec, 0x47, 0x36, 0xc4, 0x9e, 0x44, 0xc2, 0xfd, 0xf8,
  0xea, 0x2d, 0xf2, 0x03, 0xf9, 0xe6, 0xf2, 0x00, 0x17, 0xfd, 0xe3, 0x13,
  0x0b, 0x21, 0x19, 0x02, 0x2c, 0x32, 0xfd, 0xfc, 0xbb, 0x0f, 0x1e, 0x0f,
  0x00, 0xc0, 0xe5, 0x07, 0x08, 0xb9, 0x0d, 0xff, 0xf9, 0xa0, 0x19, 0xc3,
  0x23, 0x1f, 0x2c, 0x3d, 0x28, 0xdf, 0xf8, 0x0f, 0x23, 0x3d, 0xfb, 0xc7,
  0xe8, 0x08, 0xf9, 0xdb, 0x35, 0xd5, 0x0c, 0xfe, 0x0f, 0x1c, 0xf3, 0xf6,
  0xe6, 0x21, 0x05, 0xe4, 0xfb, 0x40, 0xe5, 0xd7, 0xd7, 0xe3, 0x2e, 0xfd,
  0x16, 0x0c, 0x03, 0xef, 0x08, 0xce, 0x01, 0x23, 0xf7, 0x22, 0x00, 0x00,
  0xab, 0x52, 0x1d, 0xef, 0x02, 0xf5, 0x2f, 0xfb, 0x29, 0xfa, 0x54, 0xd6,
  0xc4, 0x92, 0xbd, 0xb0, 0xd3, 0xc3, 0xef, 0x02, 0xfb, 0x7d, 0xb4, 0xed,
  0xff, 0x08, 0x5c, 0x18, 0xf0, 0xf4, 0x0f, 0xe2, 0xc2, 0x24, 0xef, 0xfd,
  0x0f, 0xd4, 0x0a, 0xf6, 0x05, 0x21, 0xf1, 0xff, 0xf4, 0xb6, 0x01, 0x1b,
  0x13, 0xe0, 0xed, 0x0e, 0xf7, 0x85, 0xe9, 0xd8, 0xd0, 0x29, 0xec, 0x07,
  0xe0, 0xff, 0x01, 0x08, 0x34, 0xf5, 0x11, 0xd4, 0x0d, 0xdf, 0xe1, 0x10,
  0xff, 0x1a, 0xe8, 0x2a, 0x0a, 0x45, 0xec, 0x1d, 0xe2, 0x18, 0x06, 0x02,
  0xf1, 0xd2, 0x23, 0xde, 0xe0, 0xda, 0xe2, 0x15, 0x32, 0x26, 0x16, 0xc0,
  0x32, 0x38, 0x1c, 0x43, 0xe7, 0xe1, 0x27, 0x04, 0xd9, 0x23, 0x0c, 0xea,
  0x01, 0xdd, 0x31, 0xf1, 0x0b, 0x0c, 0x68, 0x2b, 0xfb, 0x3d, 0xc5, 0xe7,
  0x2c, 0x0f, 0xcc, 0xf4, 0xf2, 0x20, 0xff, 0xe5, 0x3f, 0xbc, 0xb1, 0x3b,
  0xf6, 0x17, 0x9b, 0xd6, 0xe1, 0x49, 0xdc, 0x11, 0xf7, 0xf5, 0x25, 0x42,
  0x25, 0x06, 0x35, 0x50, 0xf3, 0xac, 0xe4, 0x4c, 0xd5, 0xc8, 0x0f, 0x09,
  0x2f, 0x49, 0x0e, 0x21, 0x53, 0x01, 0xf6, 0x39, 0xf2, 0x2a, 0xdb, 0xe3,
  0x10, 0x13, 0x44, 0x25, 0x0b, 0x25, 0x25, 0x2a, 0x43, 0x02, 0x61, 0x54,
  0x2e, 0x20, 0x32, 0x3b, 0x26, 0xff, 0xd6, 0xfe, 0x04, 0x36, 0xfa, 0xbf,
  0xfe, 0xd7, 0xec, 0x0b, 0x13, 0x2d, 0x0a, 0x18, 0xf3, 0x03, 0x09, 0xf1,
  0x16, 0xd8, 0x23, 0x48, 0x26, 0x12, 0x22, 0x16, 0x0b, 0xd0, 0xc4, 0x21,
  0xed, 0xd7, 0x09, 0x01, 0xf4, 0xcb, 0xee, 0x0a, 0xc2, 0x07, 0xec, 0xd6,
  0x07, 0x15, 0xcc, 0xd9, 0x0f, 0xe4, 0x09, 0xf5, 0x11, 0x37, 0xfb, 0x22,
  0x08, 0xfc, 0xc2, 0xd5, 0xec, 0xec, 0x27, 0x22, 0x05, 0x03, 0x0c, 0xef,
  0x04, 0xfd, 0xe0, 0xcc, 0x81, 0xd3, 0x0d, 0xe8, 0xcc, 0x17, 0xea, 0xe5,
  0xde, 0xf6, 0xe8, 0xd2, 0xcc, 0xfc, 0x03, 0x05, 0xeb, 0xe3, 0xf5, 0xd7,
  0xf3, 0x03, 0xe2, 0x29, 0x19, 0xdc, 0x1a, 0x1d, 0xf4, 0xd5, 0xf1, 0x2d,
  0x8e, 0x1f, 0xe0, 0xed, 0x1b, 0x2b, 0xbf, 0xd3, 0x33, 0xc2, 0x14, 0xf7,
  0xec, 0xf3, 0xf0, 0xe6, 0xe6, 0xe1, 0x01, 0xd6, 0xef, 0x0b, 0xfd, 0x21,
  0x05, 0x26, 0x35, 0x09, 0x1b, 0x05, 0xf4, 0x0e, 0xe9, 0xfc, 0x22, 0x03,
  0x02, 0xf0, 0x08, 0x16, 0x03, 0xcb, 0x1b, 0xf6, 0x10, 0xe8, 0x26, 0xdd,
  0x22, 0xf9, 0x08, 0x23, 0x15, 0xf3, 0x05, 0x07, 0x17, 0x07, 0xfd, 0xc0,
  0x04, 0xe7, 0x09, 0x09, 0xc7, 0xf8, 0xf5, 0xf0, 0x08, 0xfc, 0xcb, 0xe2,
  0x07, 0xee, 0x05, 0x01, 0xf2, 0xea, 0xf3, 0xe5, 0xed, 0xe7, 0x09, 0x02,
  0xfa, 0x2a, 0xdd, 0x1a, 0x11, 0xf1, 0x31, 0x0c, 0x24, 0x08, 0xf8, 0x0d,
  0xf9, 0x21, 0x0f, 0x17, 0x0f, 0xfb, 0x09, 0x08, 0x09, 0x1e, 0x1e, 0x05,
  0x0c, 0xf0, 0x2c, 0x06, 0x20, 0xf9, 0xfe, 0x0c, 0x1f, 0x2f, 0xe7, 0x38,
  0x12, 0x01, 0x2c, 0xf0, 0x05, 0x0b, 0xf3, 0xd9, 0x1c, 0x07, 0xf6, 0x16,
  0xde, 0xd9, 0xfe, 0xf8, 0xd8, 0xf8, 0xf2, 0xf1, 0xed, 0xe1, 0xfe, 0xde,
  0x13, 0x0f, 0x08, 0x16, 0xf7, 0xd3, 0xe9, 0x0e, 0xef, 0x07, 0xa9, 0xbc,
  0xf9, 0xed, 0x0d, 0x04, 0xdd, 0xea, 0xb0, 0xd9, 0x19, 0x2b, 0xe0, 0xdc,
  0x1b, 0xda, 0xce, 0xf4, 0xf3, 0x01, 0xe7, 0xe4, 0xf1, 0xf8, 0xde, 0xde,
  0xe4, 0xf4, 0xe7, 0x07, 0xcf, 0x04, 0x1c, 0x2c, 0x23, 0xf2, 0xe9, 0x1d,
  0x2e, 0x17, 0xf9, 0xfb, 0xf7, 0x08, 0xed, 0xf7, 0x00, 0xc2, 0x40, 0x0f,
  0xfc, 0xef, 0x28, 0xdb, 0x20, 0x0a, 0x24, 0xf6, 0x2c, 0x30, 0x1d, 0xf3,
  0x31, 0x0f, 0xf1, 0xd8, 0x08, 0x27, 0x0f, 0xea, 0x74, 0xe5, 0xec, 0x22,
  0x05, 0xe9, 0xf1, 0xfe, 0xda, 0x0d, 0xd7, 0x08, 0x08, 0x3d, 0x1c, 0x1c,
  0x23, 0x13, 0x2f, 0x21, 0xde, 0xd8, 0x05, 0x0b, 0x04, 0xd0, 0xdc, 0xd8,
  0xf8, 0xee, 0x00, 0x26, 0x0b, 0xff, 0x09, 0xe2, 0x13, 0x0a, 0x06, 0xf0,
  0x22, 0xe8, 0x01, 0x04, 0xf0, 0x1a, 0xfa, 0xe1, 0x03, 0xed, 0xf6, 0xfc,
  0xf5, 0x20, 0xfb, 0x20, 0x03, 0xfe, 0x48, 0x21, 0x09, 0x11, 0x06, 0xf3,
  0x36, 0x01, 0x20, 0x02, 0xff, 0x06, 0x20, 0x1f, 0xf6, 0xde, 0x0b, 0x11,
  0xff, 0x01, 0x09, 0xf8, 0xee, 0x11, 0xf1, 0xf7, 0xfa, 0x09, 0x0b, 0xca,
  0x04, 0x00, 0xba, 0xe1, 0xe1, 0x0a, 0x00, 0x0c, 0x45, 0x20, 0x19, 0x08,
  0xec, 0xff, 0xf7, 0x01, 0xf6, 0xfc, 0xf7, 0xdc, 0x1d, 0x0f, 0xea, 0x0c,
  0xdc, 0xf8, 0x04, 0x1d, 0xed, 0xfd, 0xff, 0xe7, 0x05, 0xfe, 0xeb, 0xea,
  0xe9, 0xeb, 0x0a, 0xf6, 0x00, 0x0c, 0xff, 0x06, 0xfb, 0x01, 0x18, 0x12,
  0xf8, 0x2b, 0x0f, 0xf1, 0x09, 0x04, 0xdc, 0xf8, 0x01, 0x0d, 0xf1, 0xfd,
  0x15, 0x0f, 0xf0, 0xcd, 0xe1, 0xec, 0x1e, 0x21, 0xfa, 0xf9, 0x28, 0xdc,
  0x67, 0xf7, 0xe3, 0x19, 0xff, 0x08, 0x00, 0x06, 0xef, 0x4c, 0xfd, 0x0a,
  0xe7, 0x19, 0xf8, 0xcb, 0x05, 0x2f, 0x0a, 0x24, 0xfe, 0xdf, 0x23, 0x81,
  0xee, 0xf4, 0xac, 0x16, 0xf9, 0x1c, 0x1f, 0xe4, 0x31, 0xf9, 0x15, 0x1a,
  0x01, 0x20, 0x1c, 0x01, 0xf0, 0x32, 0xfa, 0x0b, 0xf2, 0x12, 0x05, 0xee,
  0x13, 0x13, 0x1f, 0x1a, 0xec, 0x05, 0xed, 0x03, 0x09, 0xf2, 0x07, 0x1b,
  0x19, 0x2b, 0xc8, 0x31, 0x51, 0x0f, 0xfa, 0xfc, 0x01, 0xea, 0xd4, 0xea,
  0xff, 0xac, 0xec, 0xf8, 0x27, 0x28, 0xe4, 0x47, 0xfd, 0xe5, 0x1e, 0x21,
  0xf1, 0xe1, 0x41, 0x19, 0xd8, 0x16, 0xb0, 0xa6, 0xfc, 0xf3, 0xde, 0x1e,
  0xca, 0x24, 0x1a, 0xcb, 0x0d, 0xf9, 0x0e, 0xdf, 0x19, 0xb6, 0x0a, 0xe9,
  0x10, 0x22, 0xf3, 0x40, 0xe7, 0xe5, 0xfd, 0x05, 0xf4, 0x11, 0x05, 0x2c,
  0x11, 0x1f, 0x0f, 0xf1, 0x19, 0xd4, 0xce, 0x0f, 0xd8, 0xf3, 0xea, 0xdf,
  0xf9, 0xf3, 0xd4, 0xf9, 0x0c, 0xdc, 0x1e, 0xe9, 0xf6, 0x28, 0x06, 0xe0,
  0x17, 0xf5, 0x13, 0x01, 0x04, 0xee, 0x30, 0x1c, 0x1d, 0xf6, 0xfd, 0xcd,
  0x2e, 0x31, 0x47, 0xf6, 0x5c, 0xd8, 0xea, 0x2a, 0xfb, 0x2e, 0x00, 0xed,
  0xdf, 0x26, 0x1d, 0x1f, 0xe4, 0xfe, 0x17, 0xf4, 0x0b, 0x20, 0x34, 0x1b,
  0x0c, 0x0c, 0xff, 0xff, 0x01, 0xd7, 0xc8, 0x1a, 0xff, 0x2d, 0x39, 0xf9,
  0xe4, 0xfe, 0x0d, 0xfc, 0x24, 0x32, 0x15, 0x07, 0x07, 0xf8, 0x13, 0x03,
  0x05, 0xd7, 0xfb, 0xea, 0x14, 0x0c, 0xe3, 0x08, 0xfa, 0x2f, 0xd1, 0xe2,
  0x02, 0x11, 0x2b, 0x47, 0xfb, 0xe1, 0xf4, 0xf8, 0xe4, 0xee, 0x2e, 0xcd,
  0xe2, 0xc2, 0x36, 0x0f, 0xde, 0xcd, 0x0a, 0xf5, 0x02, 0xeb, 0xe3, 0xfe,
  0x02, 0xff, 0xde, 0xe2, 0x18, 0x39, 0x0d, 0x81, 0x28, 0xfb, 0xc0, 0xda,
  0xd4, 0xf0, 0x03, 0x02, 0x21, 0x04, 0x2d, 0xb0, 0x04, 0xf8, 0x0e, 0xf8,
  0xe4, 0xd5, 0xf1, 0xe4, 0xf6, 0x46, 0xbd, 0x0d, 0xee, 0xc7, 0xb3, 0xd1,
  0xe4, 0x1d, 0x1b, 0xf0, 0xff, 0xdf, 0x02, 0xec, 0x09, 0x00, 0x09, 0x0c,
  0xfb, 0x04, 0x04, 0xfc, 0xeb, 0xf3, 0x04, 0x1c, 0x15, 0x22, 0xf5, 0xf6,
  0xea, 0x08, 0xea, 0xdc, 0xec, 0xed, 0x10, 0xf4, 0xfc, 0x07, 0x06, 0xf0,
  0xf8, 0x07, 0x19, 0x14, 0xe8, 0x18, 0x21, 0xc3, 0x5f, 0xe7, 0xeb, 0x16,
  0xfb, 0x24, 0xea, 0x1d, 0xbb, 0x5b, 0xc9, 0x11, 0x05, 0x14, 0x29, 0xff,
  0xfd, 0x3d, 0x17, 0x17, 0xda, 0xd0, 0x16, 0xa9, 0xe0, 0xcd, 0xb4, 0x08,
  0x1f, 0xfb, 0xed, 0x25, 0xea, 0x12, 0x0d, 0xf9, 0xfd, 0xe5, 0x09, 0xe9,
  0x02, 0x0f, 0x2b, 0xe8, 0xf8, 0x10, 0xf2, 0xf9, 0x1a, 0xe4, 0x2b, 0xfd,
  0x0e, 0x0f, 0x3a, 0xf2, 0x0c, 0xf4, 0xe8, 0x1b, 0x06, 0x23, 0x18, 0xf8,
  0xe3, 0xec, 0xf9, 0x12, 0x0c, 0x26, 0x0c, 0x01, 0xfd, 0x2a, 0x0b, 0x12,
  0x00, 0x06, 0xf2, 0xd4, 0x03, 0x11, 0xfe, 0x08, 0x03, 0x01, 0xfd, 0xf4,
  0xfe, 0xfa, 0xf8, 0x06, 0x19, 0x25, 0x27, 0xe0, 0x28, 0xfb, 0xeb, 0x1f,
  0x0d, 0x23, 0xf7, 0x00, 0xf1, 0x1d, 0x0c, 0x07, 0x1f, 0xfe, 0xf9, 0xd0,
  0x2a, 0x1c, 0x1f, 0x0a, 0x0a, 0x09, 0x03, 0xd4, 0x03, 0xf3, 0xff, 0x2a,
  0xf7, 0x01, 0xf3, 0xdb, 0xc1, 0x01, 0xfe, 0xf7, 0xe8, 0x10, 0xfb, 0xf6,
  0xe7, 0xe0, 0xfe, 0xe9, 0xf2, 0xe4, 0x18, 0xdd, 0xfc, 0xf4, 0x07, 0xe9,
  0x11, 0x0f, 0xdb, 0x05, 0x0e, 0xdf, 0x07, 0xe2, 0xc8, 0xe2, 0xf8, 0xec,
  0x13, 0x06, 0x09, 0xd6, 0xee, 0xf6, 0x06, 0xff, 0xe7, 0xe7, 0xfd, 0xdd,
  0xf9, 0xf7, 0xf0, 0x11, 0xe1, 0xf0, 0xef, 0xd7, 0xea, 0x0a, 0x02, 0xf9,
  0xee, 0x03, 0xdd, 0xf3, 0xf2, 0xf6, 0xe9, 0x1a, 0x6a, 0x00, 0x05, 0xf8,
  0xea, 0x0c, 0xdd, 0xe1, 0x20, 0xe9, 0xf6, 0xfa, 0x1b, 0x0e, 0xeb, 0x25,
  0xdf, 0x13, 0x0b, 0x0a, 0xf7, 0xcc, 0xfd, 0x04, 0x09, 0x17, 0xff, 0xf2,
  0x00, 0xff, 0xef, 0x20, 0x7f, 0xfe, 0x12, 0xeb, 0x19, 0x15, 0xf2, 0x01,
  0xee, 0xea, 0x07, 0x04, 0x0f, 0x39, 0xee, 0x0a, 0x08, 0x27, 0x09, 0x13,
  0x01, 0xf2, 0x24, 0xf0, 0xf1, 0x0b, 0xe5, 0xec, 0x1b, 0x23, 0x0a, 0xf4,
  0x66, 0x02, 0x03, 0x13, 0x11, 0xe2, 0x0d, 0xf9, 0x04, 0xe1, 0xf8, 0x26,
  0x1f, 0xe4, 0x22, 0xf5, 0x24, 0x22, 0x25, 0x44, 0xf6, 0xee, 0xf4, 0xca,
  0xf6, 0x09, 0xc8, 0xe3, 0x0f, 0x24, 0x0a, 0x05, 0x27, 0xe8, 0x06, 0x1e,
  0x12, 0x03, 0x1d, 0x17, 0xef, 0x21, 0x08, 0x0a, 0x0c, 0x06, 0x13, 0x1d,
  0x0e, 0xf6, 0x1c, 0x25, 0x09, 0xf2, 0xe5, 0xe8, 0x0d, 0xf4, 0xce, 0x0d,
  0xde, 0xed, 0xd6, 0xd9, 0x18, 0xdb, 0x2b, 0x08, 0x07, 0x06, 0x14, 0x04,
  0xe8, 0xf9, 0xc1, 0xe4, 0x21, 0x15, 0xf5, 0x37, 0xe1, 0x07, 0xf1, 0xf5,
  0xd7, 0x08, 0xe4, 0x12, 0xd2, 0xd3, 0xe8, 0xf1, 0x24, 0xcd, 0xce, 0x41,
  0x08, 0x1e, 0xe7, 0xcc, 0x19, 0x41, 0xf8, 0x05, 0x06, 0xbf, 0x2c, 0xfb,
  0x20, 0x3a, 0xbf, 0x1c, 0x0c, 0x0d, 0x0a, 0xcd, 0xf8, 0xfd, 0x29, 0x31,
  0xea, 0x05, 0xf6, 0x05, 0x2b, 0x23, 0x05, 0x35, 0x0b, 0xe9, 0xee, 0x23,
  0x01, 0x2d, 0x24, 0xd4, 0x0a, 0xba, 0x67, 0x1e, 0xf4, 0x28, 0x0a, 0xea,
  0x41, 0x1a, 0x48, 0x21, 0x3e, 0xfb, 0x49, 0x21, 0x09, 0x02, 0xe8, 0xd0,
  0xe4, 0xd9, 0x10, 0x29, 0x3a, 0x00, 0xc3, 0xae, 0x20, 0x31, 0x00, 0x01,
  0x0d, 0xcc, 0x1d, 0xf3, 0xfb, 0x49, 0xe3, 0xd8, 0x05, 0x12, 0xca, 0xc2,
  0xfb, 0x27, 0x16, 0x07, 0x08, 0x08, 0x2a, 0x2e, 0x32, 0x01, 0x11, 0x17,
  0x32, 0xfc, 0xf9, 0xf5, 0x09, 0xfe, 0x13, 0xfc, 0xee, 0xb3, 0x41, 0x00,
  0xec, 0xd3, 0x12, 0xb8, 0x30, 0x24, 0x36, 0x1a, 0x3a, 0x57, 0x30, 0xf5,
  0x44, 0xf9, 0xd4, 0xc9, 0xe7, 0xf6, 0x0b, 0xc4, 0xf8, 0x10, 0x25, 0xec,
  0x02, 0x12, 0x19, 0x17, 0xd7, 0xe2, 0xea, 0x05, 0xef, 0xc8, 0xef, 0xd8,
  0xef, 0xf6, 0xc1, 0xfc, 0xf1, 0x3c, 0xea, 0x81, 0x0f, 0xee, 0x23, 0x14,
  0xfb, 0xf5, 0x16, 0xf3, 0x13, 0x10, 0x20, 0x09, 0x1b, 0xc7, 0x2b, 0xe5,
  0x08, 0xfa, 0x12, 0xe4, 0xe6, 0xd5, 0x0c, 0xb5, 0x07, 0xec, 0xf2, 0x02,
  0x11, 0x21, 0xf5, 0x9a, 0x02, 0x0a, 0x01, 0xed, 0xd1, 0xf2, 0x09, 0xde,
  0x14, 0x0d, 0x27, 0xfd, 0x17, 0xf3, 0x23, 0x23, 0xf9, 0x01, 0xe7, 0xfc,
  0xf9, 0xda, 0xf5, 0xdb, 0xf7, 0x26, 0xbf, 0xfc, 0xf3, 0x25, 0xfe, 0xa4,
  0xf8, 0x03, 0x38, 0xfc, 0xdd, 0xf3, 0x22, 0xe8, 0x30, 0x0f, 0x1a, 0x09,
  0xff, 0xfb, 0x2b, 0x00, 0x0b, 0x05, 0xfe, 0xed, 0xf0, 0x0a, 0x16, 0x19,
  0xf8, 0x25, 0x10, 0x0b, 0xe0, 0x4a, 0x01, 0xcf, 0x0d, 0xe7, 0x05, 0xfb,
  0xd7, 0xd1, 0xd4, 0xe8, 0x2e, 0xcc, 0xbc, 0xff, 0xef, 0x06, 0xc0, 0xd6,
  0xeb, 0x30, 0xe3, 0xf8, 0xe3, 0x0d, 0xea, 0xfc, 0xf9, 0xff, 0x22, 0xdc,
  0xc1, 0xfa, 0xe9, 0x39, 0xb7, 0xd5, 0xfb, 0xdb, 0x0e, 0x36, 0x1c, 0x0b,
  0x5a, 0xf1, 0xc3, 0x4a, 0x1d, 0x0f, 0xe9, 0xcd, 0x17, 0xd8, 0x06, 0x0d,
  0xee, 0xf2, 0x11, 0x02, 0xf5, 0x0c, 0x3a, 0x50, 0xe5, 0xd9, 0x09, 0x2d,
  0xc9, 0xfc, 0xfd, 0xe9, 0xcf, 0x17, 0x61, 0xe0, 0x0c, 0x41, 0x3b, 0xdf,
  0x2c, 0xd8, 0x63, 0x29, 0x3b, 0xd6, 0xdd, 0x12, 0xf7, 0xef, 0xf0, 0xbf,
  0x0e, 0x10, 0x9b, 0xef, 0x23, 0x1f, 0xdd, 0x81, 0x22, 0x35, 0x27, 0x56,
  0xfc, 0xee, 0xda, 0x3f, 0x26, 0x27, 0x39, 0xa3, 0x12, 0xbf, 0x3f, 0x02,
  0x08, 0xa7, 0x20, 0x13, 0x38, 0x20, 0xec, 0x43, 0xff, 0xf0, 0xed, 0xfa,
  0x34, 0x01, 0x06, 0x1b, 0x33, 0x1b, 0xec, 0xc9, 0x00, 0xdc, 0x17, 0xdb,
  0xeb, 0xb8, 0x3d, 0x11, 0xf6, 0xfd, 0xe8, 0x09, 0xcd, 0x36, 0xd3, 0xef,
  0xc0, 0x10, 0xdf, 0x27, 0x01, 0xeb, 0xdc, 0xf3, 0x07, 0xdc, 0x1e, 0x11,
  0x07, 0xc7, 0xe0, 0xf9, 0xf0, 0x00, 0x35, 0xf0, 0xf4, 0x35, 0xca, 0x18,
  0x1d, 0x57, 0x1c, 0xf8, 0x40, 0x13, 0xed, 0x0f, 0xe7, 0xd6, 0x00, 0xd9,
  0x0e, 0x00, 0x0e, 0x17, 0xde, 0x30, 0xde, 0xbd, 0xef, 0x1d, 0x4c, 0x38,
  0xe0, 0xfd, 0x4f, 0xee, 0xe7, 0x20, 0x07, 0xec, 0x44, 0x4c, 0x24, 0x2e,
  0x2b, 0x14, 0x19, 0x32, 0x0e, 0xcf, 0xf3, 0x90, 0x05, 0x0d, 0xed, 0xe8,
  0xf8, 0x0c, 0xef, 0xb9, 0x03, 0xfc, 0x3c, 0x67, 0x01, 0xd2, 0x06, 0xd9,
  0xc4, 0x00, 0x39, 0xcf, 0x07, 0xf6, 0x05, 0x36, 0xd0, 0xd9, 0x1c, 0xe8,
  0xe9, 0x2a, 0x03, 0x00, 0x0b, 0x32, 0xf0, 0xc1, 0xf4, 0x20, 0x43, 0xc4,
  0x09, 0xee, 0xe0, 0xfd, 0x1a, 0xe1, 0xc9, 0x15, 0x09, 0xeb, 0xdb, 0xeb,
  0xf0, 0x08, 0xd1, 0xbc, 0x14, 0xea, 0x22, 0xf2, 0xdc, 0xf3, 0x02, 0xe4,
  0x0b, 0xe3, 0x61, 0xef, 0x0f, 0x54, 0x20, 0x31, 0x14, 0xfd, 0x10, 0xd6,
  0xc4, 0xbb, 0xe4, 0x07, 0xc8, 0x18, 0x29, 0xf0, 0xf6, 0xc1, 0xf9, 0x12,
  0x05, 0x4c, 0xd6, 0xd6, 0x00, 0x0d, 0xc9, 0x20, 0xc6, 0xc0, 0xfe, 0xc1,
  0xf9, 0x11, 0xf5, 0x04, 0xe6, 0xfe, 0x15, 0xe9, 0xc9, 0xe5, 0x0b, 0x11,
  0xc3, 0x14, 0x22, 0x00, 0xf8, 0x0e, 0x18, 0x19, 0x08, 0x47, 0xf0, 0x01,
  0xfd, 0x1b, 0xb7, 0x38, 0xbf, 0xd4, 0xa3, 0xe7, 0xe9, 0x22, 0xf1, 0x20,
  0x02, 0x27, 0x11, 0x2c, 0xe5, 0xea, 0xf8, 0x0e, 0x19, 0x05, 0x24, 0x05,
  0xfd, 0xc7, 0xff, 0x15, 0x0d, 0x14, 0x01, 0x00, 0x30, 0x19, 0xe4, 0x37,
  0xf8, 0xfa, 0xc7, 0x04, 0xfc, 0xea, 0x08, 0xf6, 0xf6, 0x02, 0xc6, 0xe8,
  0x2e, 0x04, 0x0f, 0xee, 0x15, 0xfb, 0xf3, 0x04, 0xf9, 0x08, 0xdb, 0xfa,
  0x01, 0x26, 0x14, 0x09, 0x18, 0x0f, 0x12, 0xf6, 0x22, 0xff, 0xfc, 0xf9,
  0x0e, 0x49, 0x14, 0x2b, 0x1e, 0xfa, 0x28, 0x28, 0xf0, 0xfd, 0xfb, 0x17,
  0xdc, 0x1a, 0x05, 0xbc, 0x2e, 0x18, 0x0d, 0xf3, 0x03, 0xe3, 0xff, 0x06,
  0x02, 0x09, 0xef, 0xfc, 0x0d, 0x0d, 0xc4, 0xd4, 0x0c, 0x55, 0xe3, 0x0b,
  0x35, 0x0d, 0x45, 0x22, 0xfd, 0x1e, 0x0a, 0xc4, 0x19, 0xed, 0xfd, 0xf9,
  0x10, 0xf1, 0x03, 0x0b, 0xf4, 0xfa, 0x16, 0x13, 0xff, 0xbe, 0x1e, 0xe2,
  0x1a, 0x2d, 0x03, 0x04, 0xf9, 0x13, 0xe2, 0xf9, 0xf7, 0xfe, 0x0f, 0x1f,
  0xd2, 0xff, 0x23, 0x03, 0x97, 0xe9, 0xee, 0xdb, 0x19, 0x0c, 0xdc, 0xdf,
  0x16, 0xf4, 0xe4, 0x0f, 0xda, 0x02, 0x0f, 0xd4, 0xe8, 0xe5, 0xc4, 0xf7,
  0xd9, 0x3c, 0xc2, 0xe4, 0x01, 0xf8, 0x39, 0x28, 0xd3, 0xda, 0x0a, 0x01,
  0xfd, 0x3b, 0x2f, 0xab, 0x08, 0xf5, 0x49, 0x29, 0xf5, 0xba, 0xf6, 0xfe,
  0xe7, 0xe1, 0xe9, 0x90, 0xf2, 0x0f, 0xb4, 0xc7, 0x0c, 0x57, 0x08, 0x81,
  0x12, 0x1f, 0x3a, 0x1d, 0xe8, 0xee, 0xf1, 0x1b, 0x3a, 0x0c, 0x17, 0xc8,
  0x19, 0xf9, 0x12, 0x1c, 0x14, 0xb9, 0x0d, 0xe2, 0xe3, 0xf7, 0xf7, 0xe4,
  0xdd, 0xf2, 0xf2, 0xea, 0xfb, 0x16, 0x1a, 0xe1, 0x00, 0xf8, 0xf8, 0xef,
  0xef, 0x2a, 0x09, 0xcf, 0x10, 0xda, 0xda, 0x1e, 0x07, 0x4a, 0xe6, 0x0b,
  0xdd, 0x57, 0xcb, 0x30, 0xf8, 0x1c, 0x16, 0x1e, 0xfb, 0x4d, 0xf0, 0x1a,
  0xbc, 0x81, 0xe5, 0x7d, 0xce, 0xde, 0x30, 0xfd, 0xe0, 0x30, 0xdb, 0x14,
  0x3c, 0xe5, 0x9e, 0x37, 0xf3, 0xe0, 0x1a, 0x03, 0xda, 0x2e, 0xc7, 0xe3,
  0x0a, 0x58, 0x08, 0xfa, 0xf4, 0xf0, 0x59, 0x26, 0xe9, 0xc9, 0x38, 0xe9,
  0x9e, 0xd1, 0xd8, 0x1d, 0x07, 0x03, 0x0e, 0x11, 0x23, 0x18, 0x02, 0xea,
  0x14, 0x3c, 0x26, 0x07, 0x34, 0xd6, 0xf3, 0x10, 0x16, 0x25, 0xec, 0x02,
  0x1a, 0x21, 0xc9, 0x29, 0x09, 0xf1, 0x2b, 0x07, 0x16, 0x22, 0x2d, 0x50,
  0x0d, 0xf0, 0xe2, 0xd5, 0x62, 0xe5, 0xee, 0xf1, 0xef, 0xfe, 0xd9, 0xba,
  0xeb, 0xc9, 0x17, 0xf7, 0xdb, 0x02, 0xe9, 0x05, 0x05, 0x00, 0x33, 0x34,
  0x09, 0xcc, 0x11, 0x01, 0xf4, 0xd0, 0xc5, 0xc2, 0xe0, 0x00, 0xd5, 0x2b,
  0xf5, 0x16, 0xd1, 0xe2, 0x07, 0xf6, 0xbd, 0xc7, 0x25, 0xb7, 0xf3, 0xeb,
  0xf8, 0x34, 0xe8, 0x32, 0xe3, 0xbc, 0xc8, 0xf3, 0x06, 0xe3, 0x1c, 0x05,
  0xcf, 0x04, 0xec, 0xff, 0x33, 0xf5, 0xf6, 0xff, 0xb1, 0x17, 0x42, 0x03,
  0xda, 0xda, 0x2d, 0x11, 0x11, 0xd5, 0x49, 0x15, 0xf9, 0xc4, 0x13, 0xd5,
  0x29, 0xda, 0x33, 0x13, 0x2e, 0x45, 0x13, 0xa8, 0x49, 0x2e, 0xf5, 0xec,
  0x0d, 0xd9, 0xed, 0x2c, 0xb1, 0x0e, 0x02, 0xd1, 0xf1, 0x3b, 0xe1, 0x02,
  0x1e, 0x2b, 0xfc, 0x1e, 0xf2, 0x1a, 0xc9, 0x28, 0xd6, 0xe7, 0xe2, 0xdd,
  0x14, 0x92, 0x1e, 0x3b, 0xc1, 0x25, 0x24, 0x43, 0x14, 0xe1, 0x04, 0x36,
  0xb9, 0x0a, 0x02, 0xde, 0x12, 0xf0, 0xbc, 0xdd, 0x3b, 0xd5, 0x2b, 0x0f,
  0x25, 0x35, 0x3a, 0x28, 0xfb, 0x0e, 0x19, 0xd4, 0x0a, 0x10, 0x1d, 0xd3,
  0x31, 0x31, 0x10, 0xec, 0x1f, 0x08, 0xe7, 0xe5, 0xf0, 0x2c, 0x24, 0xf0,
  0xe9, 0xf9, 0x14, 0x1a, 0xfb, 0xe3, 0x04, 0xec, 0x0c, 0xec, 0x13, 0xc6,
  0x0f, 0x12, 0x23, 0xf4, 0x2f, 0x50, 0xeb, 0xce, 0x16, 0x0e, 0xf1, 0xd0,
  0x22, 0xe6, 0xf7, 0x31, 0xf1, 0xe7, 0xcb, 0xcb, 0x0d, 0x29, 0x00, 0xfb,
  0x06, 0xda, 0x11, 0xe7, 0x01, 0x18, 0xc1, 0xdb, 0xe5, 0x08, 0xef, 0xd4,
  0xf8, 0x1b, 0xff, 0x3f, 0x2f, 0xff, 0x0c, 0x18, 0x36, 0xf8, 0xe9, 0x30,
  0x4e, 0xf6, 0x1a, 0xf2, 0x35, 0x18, 0xef, 0x25, 0xf5, 0xde, 0x26, 0x13,
  0x2b, 0x4d, 0x35, 0xf0, 0x34, 0x38, 0x3a, 0xee, 0x2c, 0x3c, 0x66, 0x1d,
  0x36, 0xe8, 0x2f, 0xff, 0xf4, 0x1c, 0xd5, 0x0e, 0x00, 0xdb, 0xfb, 0x14,
  0x01, 0xe9, 0xf0, 0xef, 0xf2, 0xe0, 0x07, 0xf7, 0xcd, 0xf8, 0x04, 0xa4,
  0xed, 0xe8, 0x21, 0x05, 0xf9, 0x3e, 0x0b, 0xc5, 0xfb, 0xe5, 0x03, 0xc1,
  0x10, 0xf1, 0xf2, 0x41, 0x02, 0x28, 0x1f, 0x26, 0xfc, 0xcc, 0x03, 0x07,
  0x2c, 0xd8, 0x20, 0xea, 0x11, 0xf0, 0x06, 0xdf, 0x21, 0xf7, 0x22, 0x18,
  0x3a, 0x1d, 0x26, 0x3e, 0x2d, 0x22, 0x05, 0xd1, 0x18, 0x02, 0x0a, 0xf8,
  0x39, 0x03, 0x1b, 0x14, 0xe9, 0xf4, 0x02, 0x26, 0xf2, 0xf7, 0x12, 0x28,
  0x00, 0xd7, 0x30, 0xf6, 0xec, 0x42, 0x0e, 0x1e, 0x22, 0x27, 0xfc, 0xb4,
  0xf8, 0xf2, 0xeb, 0xd4, 0xcb, 0x1d, 0x05, 0x0a, 0x31, 0x27, 0x21, 0x01,
  0x0e, 0x12, 0x3e, 0x0a, 0xdc, 0x13, 0x07, 0xef, 0x18, 0x14, 0xdc, 0x12,
  0xdf, 0xfe, 0x09, 0x19, 0xf4, 0x3d, 0xe3, 0xd7, 0xeb, 0xf6, 0xec, 0xeb,
  0xfa, 0x12, 0x2c, 0xb8, 0x32, 0xe7, 0xe1, 0x29, 0xe3, 0x1a, 0x1d, 0x2a,
  0xcd, 0x4e, 0xd7, 0x05, 0xdb, 0xef, 0x05, 0x16, 0x04, 0x19, 0x10, 0x11,
  0xef, 0xb4, 0xba, 0x2b, 0xda, 0xde, 0xd6, 0x30, 0xd6, 0x05, 0x15, 0xda,
  0x3c, 0xba, 0xd5, 0x45, 0xe7, 0xf8, 0xd1, 0xdb, 0xc6, 0x4f, 0xc6, 0x00,
  0x00, 0x27, 0x06, 0x74, 0xe7, 0xf6, 0x16, 0x1c, 0xd0, 0x99, 0xe6, 0x0f,
  0xe1, 0xdf, 0xb8, 0x00, 0xe1, 0x0d, 0x39, 0xfa, 0x7f, 0x0e, 0x0c, 0x21,
  0x0f, 0x36, 0x12, 0xf3, 0xf5, 0x32, 0xf2, 0x1b, 0x16, 0xf8, 0xff, 0x0a,
  0xea, 0x22, 0x14, 0x17, 0xf8, 0x25, 0xfa, 0x91, 0xd8, 0xf7, 0xf7, 0x43,
  0x21, 0xe8, 0xf7, 0x0b, 0xd5, 0x1d, 0x06, 0xf8, 0x02, 0x0a, 0xee, 0x13,
  0x1b, 0xf2, 0x1e, 0x13, 0x16, 0xf1, 0x0d, 0xff, 0x16, 0x1d, 0xff, 0xe1,
  0x19, 0x00, 0x07, 0x24, 0x1e, 0x0d, 0x1e, 0xf8, 0x14, 0x02, 0x00, 0xe9,
  0xd6, 0x00, 0x0c, 0xf1, 0xf7, 0xf6, 0xf0, 0x07, 0xef, 0x00, 0xf8, 0x0b,
  0xe5, 0xf1, 0x17, 0xbf, 0x11, 0xf0, 0x04, 0x00, 0x00, 0x14, 0xf8, 0xde,
  0x07, 0x0a, 0x07, 0xff, 0xf3, 0xf6, 0x01, 0x07, 0xa3, 0x25, 0xf3, 0xfa,
  0x06, 0x1e, 0x0a, 0xfc, 0x24, 0x0e, 0xf6, 0xf9, 0xfe, 0xce, 0xeb, 0xee,
  0xf1, 0xe2, 0xda, 0xf7, 0x03, 0x30, 0xdd, 0x17, 0x05, 0x2a, 0x3c, 0x38,
  0x1a, 0x14, 0xe9, 0xf1, 0xce, 0xf0, 0x04, 0x1f, 0xf0, 0xec, 0xff, 0x14,
  0x02, 0xf1, 0x09, 0xf5, 0xdb, 0xca, 0x0a, 0x01, 0x12, 0xeb, 0x0f, 0x1b,
  0x1c, 0xf6, 0xf0, 0x32, 0x21, 0xfd, 0x1b, 0xe3, 0xe2, 0xed, 0xd4, 0xfb,
  0xa8, 0xee, 0x04, 0xf3, 0xda, 0xe5, 0xcf, 0xec, 0xe3, 0xf4, 0xd6, 0xd6,
  0xcb, 0xda, 0xe5, 0xef, 0xd3, 0xd3, 0xe7, 0xd4, 0xde, 0xfe, 0x01, 0xde,
  0xe7, 0xe2, 0xf7, 0xe6, 0xf2, 0x0a, 0x07, 0x13, 0x81, 0x1e, 0xe7, 0xf5,
  0x16, 0x12, 0x1c, 0x06, 0x2a, 0xfd, 0x01, 0xff, 0x04, 0xf7, 0xea, 0xfd,
  0xf6, 0xe7, 0xc5, 0xd9, 0x14, 0x2c, 0xce, 0xfc, 0x0b, 0x2f, 0x3e, 0x2b,
  0xfd, 0x20, 0x32, 0xf0, 0x31, 0xf1, 0xe4, 0x1a, 0x08, 0x0c, 0x02, 0xf8,
  0x2c, 0x2c, 0xe2, 0x11, 0x1b, 0xfb, 0x12, 0x34, 0x08, 0x05, 0xf3, 0x10,
  0xe6, 0xec, 0xdd, 0x3a, 0xde, 0xfe, 0x2a, 0x2b, 0x01, 0xe6, 0xf2, 0x00,
  0xe7, 0x05, 0x1d, 0xfa, 0xf5, 0xd5, 0xfb, 0x00, 0xec, 0xf0, 0xff, 0xfc,
  0x12, 0x22, 0xfc, 0x14, 0x0a, 0xe0, 0xf7, 0xe7, 0xf8, 0x31, 0xff, 0xe4,
  0x34, 0xf5, 0xd3, 0xe2, 0xed, 0x08, 0x13, 0x07, 0xb8, 0x16, 0xe2, 0xfd,
  0x16, 0x13, 0x10, 0xeb, 0x2f, 0x1e, 0xfd, 0x05, 0x0f, 0xeb, 0xef, 0xe3,
  0xf0, 0xe9, 0xe3, 0x0a, 0x05, 0x09, 0xdd, 0x10, 0xf0, 0x1d, 0x4f, 0x32,
  0x0b, 0x17, 0x31, 0xd7, 0xf7, 0xd7, 0xd8, 0x1d, 0x1c, 0x21, 0xff, 0xf0,
  0x05, 0x2e, 0xe2, 0xe5, 0xda, 0xd8, 0x04, 0xcc, 0xf7, 0xfc, 0x26, 0x29,
  0xd7, 0x28, 0xb3, 0x32, 0xf4, 0xd1, 0x30, 0x3d, 0x1d, 0x3b, 0x1d, 0x17,
  0x07, 0x09, 0xf9, 0x46, 0x25, 0x08, 0xf6, 0xfe, 0x22, 0x4f, 0x22, 0x19,
  0x06, 0xf4, 0x0f, 0xe2, 0x1d, 0x1c, 0x24, 0x26, 0x06, 0x10, 0x03, 0x05,
  0x0c, 0x0d, 0x3a, 0x0e, 0x20, 0x11, 0xdc, 0xdc, 0xef, 0xdc, 0xd4, 0x3a,
  0xd8, 0xf0, 0xdc, 0xee, 0xe0, 0x21, 0x0a, 0xfa, 0xd0, 0xa3, 0x36, 0xf1,
  0x1f, 0xe5, 0x40, 0x26, 0xfd, 0x1d, 0xbc, 0x6e, 0x17, 0xec, 0xc3, 0xd1,
  0xc6, 0xdf, 0xdb, 0xfa, 0x0c, 0xfe, 0x22, 0xdd, 0xe4, 0xd2, 0x10, 0xf3,
  0x08, 0xf8, 0xe8, 0xe9, 0xfe, 0x1c, 0xd6, 0x4d, 0xd4, 0xc4, 0xc9, 0xe0,
  0x03, 0xff, 0xe5, 0x19, 0xdf, 0xf5, 0xed, 0xd2, 0xd4, 0xd3, 0xc2, 0xe1,
  0x0c, 0xe0, 0x19, 0xe1, 0xbf, 0xde, 0xdb, 0xf3, 0xd6, 0x17, 0xd3, 0xdd,
  0xff, 0x20, 0xe6, 0x44, 0xe4, 0xfd, 0xe5, 0xdb, 0xda, 0xc4, 0x12, 0x4f,
  0xcb, 0xed, 0xd4, 0xcd, 0xfb, 0xe3, 0xe1, 0x29, 0x7c, 0xd1, 0xd4, 0xec,
  0xed, 0xd9, 0xc3, 0xb4, 0x18, 0xf2, 0xd7, 0x13, 0x35, 0x24, 0xe7, 0x33,
  0xfb, 0xee, 0x13, 0x2f, 0x05, 0x81, 0x24, 0x25, 0xc8, 0xf6, 0xff, 0xfd,
  0x02, 0x08, 0x07, 0x10, 0xed, 0x24, 0xd3, 0xf7, 0x2f, 0x1a, 0x0f, 0xf7,
  0x2f, 0x04, 0x03, 0xf4, 0x0e, 0xf2, 0x00, 0xf7, 0x1e, 0x06, 0xdd, 0xe3,
  0x1d, 0x0f, 0xd8, 0x1d, 0x0a, 0x29, 0x33, 0x34, 0x1c, 0xfc, 0x21, 0x0e,
  0x3d, 0x0a, 0x30, 0xef, 0x01, 0x1d, 0x27, 0x39, 0xef, 0xfc, 0x0b, 0x3d,
  0x17, 0x08, 0x1d, 0xec, 0x07, 0x3b, 0xdd, 0x07, 0x14, 0xf3, 0x17, 0xd3,
  0xf8, 0x07, 0xcd, 0xfd, 0x19, 0x10, 0x1d, 0x13, 0x47, 0xc9, 0x43, 0x0d,
  0x06, 0x0b, 0xef, 0x1c, 0xd9, 0x03, 0xfe, 0x22, 0xfb, 0x31, 0x07, 0x21,
  0x21, 0x14, 0x0e, 0x0b, 0x00, 0xc0, 0x2b, 0xdb, 0xfe, 0xfb, 0xde, 0x07,
  0xe2, 0xec, 0x09, 0xc8, 0x33, 0xcf, 0xf8, 0xed, 0x01, 0xf2, 0xeb, 0xea,
  0xea, 0x0c, 0xab, 0xfb, 0xf2, 0xeb, 0xee, 0x0a, 0xc9, 0xfe, 0xe8, 0x00,
  0xc3, 0x09, 0xf9, 0x1c, 0x9e, 0xd3, 0xe3, 0x0e, 0xf1, 0xe6, 0xfc, 0x24,
  0xac, 0x0e, 0x05, 0xc0, 0x1c, 0x13, 0xde, 0xec, 0x17, 0xb5, 0xfa, 0xf1,
  0x12, 0x18, 0xbc, 0x22, 0xdc, 0xd4, 0xd9, 0xd5, 0xe2, 0x12, 0xfc, 0x19,
  0x0e, 0x1f, 0x32, 0x1c, 0x29, 0xcb, 0xbf, 0x0a, 0xe4, 0x0d, 0x0c, 0xe3,
  0x06, 0x17, 0x16, 0x1d, 0xfe, 0xa2, 0x33, 0x15, 0xeb, 0x12, 0x31, 0xf1,
  0x1e, 0xfa, 0x09, 0xd2, 0x17, 0x21, 0x1d, 0x29, 0x2e, 0xfb, 0x0f, 0xc2,
  0x08, 0xfe, 0x0b, 0x2d, 0xab, 0xd8, 0x04, 0x0b, 0x1d, 0xf1, 0xde, 0xe2,
  0x02, 0x09, 0xfe, 0x01, 0x03, 0x45, 0x04, 0x45, 0x04, 0xd1, 0x24, 0xfa,
  0x0f, 0x05, 0x22, 0x27, 0x19, 0xe9, 0x17, 0x09, 0xe8, 0xec, 0x0a, 0x22,
  0x89, 0x0e, 0x0c, 0xbd, 0x19, 0x28, 0x2b, 0x15, 0x2e, 0xc9, 0x05, 0x14,
  0x03, 0xeb, 0xd6, 0xdf, 0x08, 0x00, 0xd2, 0xdc, 0x1f, 0x14, 0xe1, 0xfc,
  0x23, 0x1a, 0x43, 0x27, 0xf7, 0xd0, 0xc3, 0x0b, 0xbe, 0x27, 0x40, 0xb2,
  0xec, 0xe5, 0x1a, 0x32, 0xe0, 0xb8, 0x39, 0xee, 0xe4, 0x0a, 0xf8, 0xa0,
  0x06, 0x02, 0xd4, 0xc5, 0x17, 0x58, 0x1e, 0xf3, 0x3e, 0xfb, 0xdd, 0xb4,
  0x21, 0x0b, 0x0f, 0x0e, 0xd6, 0xee, 0x1e, 0x0b, 0x1f, 0x0d, 0xed, 0x0c,
  0xec, 0xde, 0x27, 0x11, 0xe3, 0x3b, 0x20, 0xfc, 0x09, 0x32, 0x04, 0xe9,
  0x1a, 0x47, 0x4f, 0xd9, 0x2b, 0xd6, 0x0c, 0xcf, 0x02, 0xf8, 0xf9, 0x17,
  0xc0, 0x32, 0xcb, 0xf9, 0x16, 0xe8, 0x16, 0xd4, 0x31, 0x08, 0x18, 0x18,
  0xf6, 0xf7, 0xeb, 0x86, 0xfb, 0xfd, 0xee, 0xe5, 0x0b, 0x2a, 0xf6, 0xb9,
  0xd6, 0x1a, 0x20, 0x24, 0xf6, 0x1d, 0x34, 0xf0, 0x3d, 0x37, 0x20, 0x05,
  0x0c, 0x05, 0x36, 0x3b, 0x01, 0x03, 0xe2, 0x0a, 0x16, 0xe3, 0x15, 0xf0,
  0x07, 0x11, 0xd8, 0x14, 0xe9, 0x2e, 0x03, 0x81, 0x15, 0x15, 0xc7, 0x00,
  0xe4, 0xf8, 0xdc, 0xe9, 0x24, 0xff, 0x0f, 0xf7, 0xe2, 0xfd, 0x0d, 0x20,
  0xdf, 0xcc, 0x01, 0xe1, 0x10, 0x13, 0x14, 0xf6, 0xf8, 0xf4, 0xdd, 0x07,
  0x03, 0x45, 0xf9, 0x0b, 0x12, 0xdc, 0x02, 0xe3, 0xec, 0xdf, 0x0d, 0x0b,
  0x01, 0x2e, 0x0d, 0xb8, 0xf7, 0x12, 0x0a, 0x00, 0x0e, 0xa3, 0x05, 0x0c,
  0xf5, 0xd5, 0xfe, 0xe8, 0xe0, 0x07, 0xb6, 0xed, 0x11, 0x04, 0x0b, 0xd2,
  0xf2, 0x2e, 0xf5, 0x01, 0x02, 0x11, 0xee, 0x07, 0x45, 0x21, 0x09, 0x0d,
  0x01, 0xe4, 0x0f, 0x3f, 0xfb, 0xbc, 0xe0, 0x26, 0x2b, 0x08, 0xf8, 0xff,
  0xfd, 0x26, 0xe5, 0x2e, 0xe4, 0x9f, 0x1c, 0xd5, 0xdf, 0x16, 0xdf, 0xd2,
  0x0f, 0xee, 0xec, 0x1c, 0xd9, 0xec, 0xdf, 0xd7, 0xf7, 0x16, 0xe1, 0xe0,
  0x2d, 0xe5, 0x2a, 0x06, 0xeb, 0x0b, 0xc4, 0xe8, 0xef, 0xd8, 0xf6, 0xd5,
  0x01, 0x18, 0xfb, 0x1e, 0xfa, 0xf7, 0x2e, 0x2a, 0x3b, 0x0a, 0x10, 0x26,
  0xf4, 0x0b, 0x03, 0x06, 0x01, 0xf1, 0x03, 0x11, 0xe3, 0xe6, 0x4b, 0x03,
  0x08, 0xfd, 0x17, 0xb5, 0x48, 0x1a, 0x3c, 0x1a, 0x32, 0x33, 0x18, 0xd4,
  0x43, 0xfc, 0xe0, 0xdf, 0x19, 0x0c, 0x1d, 0xf1, 0xe7, 0xdb, 0xc8, 0x03,
  0xe9, 0x48, 0x0c, 0xf3, 0xf1, 0x3b, 0x18, 0x16, 0x05, 0xd8, 0xfb, 0xef,
  0x3b, 0xfa, 0x14, 0x03, 0x18, 0xbe, 0xea, 0xfe, 0xf5, 0xe3, 0xfa, 0x42,
  0xfd, 0x2e, 0x28, 0xf0, 0x13, 0xdd, 0x07, 0x25, 0x14, 0x18, 0x17, 0xd9,
  0x0b, 0x24, 0x00, 0xfb, 0xff, 0xd9, 0xe7, 0xb4, 0x02, 0xf9, 0x09, 0x22,
  0xe6, 0x1b, 0xfe, 0xd7, 0xfa, 0x04, 0x35, 0x47, 0xf4, 0xef, 0x09, 0xd2,
  0xc4, 0xfa, 0x09, 0xe6, 0x00, 0xf9, 0xfe, 0xfb, 0xe3, 0xc8, 0xf5, 0x00,
  0xcb, 0xd6, 0x0f, 0xfc, 0x04, 0x1b, 0xc7, 0xd6, 0xfa, 0x0a, 0x00, 0xe5,
  0x14, 0xf4, 0x0d, 0xda, 0xf7, 0x17, 0x04, 0x1d, 0x7f, 0x18, 0xc5, 0xfd,
  0xfd, 0x10, 0xee, 0xd9, 0x40, 0xd3, 0x0f, 0x1e, 0x11, 0xf0, 0xfa, 0xec,
  0xf7, 0x30, 0xef, 0x3c, 0xfc, 0xec, 0x23, 0xff, 0xd8, 0x1d, 0x27, 0xee,
  0x02, 0xfe, 0x06, 0xde, 0xfe, 0xff, 0x01, 0xf2, 0x0f, 0xff, 0x06, 0x00,
  0xf9, 0xf7, 0xf9, 0x06, 0xe3, 0xe4, 0x31, 0xd3, 0x04, 0x12, 0xf9, 0xeb,
  0xe9, 0x5d, 0xf2, 0xfe, 0x23, 0x01, 0x0c, 0xf5, 0xf0, 0xec, 0xfc, 0x06,
  0xd6, 0xfa, 0xf8, 0xf1, 0x16, 0xf9, 0xed, 0xf3, 0x22, 0xd3, 0xf6, 0xf6,
  0xf9, 0xec, 0xef, 0xfa, 0xf9, 0xd7, 0xd8, 0xf1, 0xea, 0x22, 0xe3, 0x13,
  0x0f, 0x02, 0x49, 0x26, 0x12, 0xed, 0xf0, 0xee, 0xde, 0x16, 0x18, 0x07,
  0x04, 0xe0, 0x10, 0x10, 0x0b, 0xf6, 0x23, 0xeb, 0xf8, 0xcf, 0x0d, 0xd7,
  0x0c, 0xe4, 0x12, 0xfd, 0x20, 0x2b, 0x01, 0x0b, 0x1c, 0x17, 0x1d, 0x02,
  0xd6, 0xe6, 0xd4, 0xff, 0xaf, 0x13, 0x2a, 0xe8, 0xe9, 0xc2, 0xfb, 0x05,
  0xf6, 0xe8, 0xf4, 0xd3, 0xed, 0xe2, 0xde, 0x21, 0xd6, 0xd2, 0xe2, 0xd3,
  0x02, 0x25, 0xd9, 0xf2, 0xf9, 0x00, 0xdd, 0xd2, 0xe8, 0x0f, 0x12, 0xf7,
  0x81, 0xef, 0xf6, 0x21, 0xeb, 0xd7, 0xb9, 0xd9, 0x01, 0x1b, 0xe7, 0xe8,
  0xb5, 0xe3, 0xf7, 0x02, 0xe9, 0xdc, 0x20, 0x0a, 0xda, 0x0a, 0xf2, 0xf2,
  0xe3, 0xe2, 0x1a, 0x09, 0xfa, 0x03, 0xef, 0x01, 0xc1, 0xfc, 0xf0, 0x0a,
  0xff, 0x0e, 0x10, 0xd6, 0xe7, 0x15, 0xf7, 0xf2, 0xc6, 0xf0, 0x13, 0xf8,
  0x0b, 0xfa, 0x13, 0xfa, 0xe9, 0x3e, 0xf5, 0x0b, 0xf4, 0xf1, 0x32, 0x04,
  0x11, 0x2c, 0x3d, 0x2d, 0x51, 0x0f, 0x0b, 0x19, 0xf2, 0x2c, 0x38, 0x33,
  0xfa, 0x24, 0x10, 0x3a, 0x3a, 0x3f, 0x1f, 0x2d, 0x1c, 0x2e, 0x11, 0x2b,
  0x03, 0xe3, 0x26, 0xca, 0xf1, 0x10, 0xb9, 0x23, 0x08, 0x16, 0x0d, 0x0b,
  0x1b, 0xff, 0x16, 0xff, 0x15, 0x17, 0xfa, 0x11, 0xf4, 0xe9, 0xe0, 0x1d,
  0x46, 0x54, 0xfe, 0x47, 0x17, 0x26, 0xfa, 0x08, 0x13, 0xcf, 0x10, 0xff,
  0x04, 0xff, 0xcc, 0xde, 0x00, 0xde, 0xe8, 0x15, 0x09, 0xfc, 0xf5, 0xec,
  0xf2, 0xf5, 0xfb, 0x02, 0x04, 0xcf, 0x10, 0xf9, 0x10, 0x05, 0xea, 0x0b,
  0xed, 0xeb, 0xf7, 0xd9, 0x02, 0xfd, 0x0d, 0x09, 0x0e, 0x0f, 0x02, 0xe9,
  0xfd, 0x1b, 0x1d, 0x06, 0xf2, 0xfb, 0xf4, 0xf7, 0x24, 0x1a, 0xe5, 0xf5,
  0x11, 0xfd, 0x0a, 0x0e, 0xfb, 0xe9, 0xef, 0xfe, 0x01, 0xfd, 0xef, 0x12,
  0x03, 0x20, 0xe3, 0x03, 0x16, 0x1d, 0x1c, 0x1a, 0x24, 0x04, 0x0c, 0x0b,
  0xf4, 0x06, 0x08, 0x0a, 0xff, 0xff, 0xea, 0x02, 0x17, 0x06, 0x0e, 0x12,
  0xf6, 0xef, 0x2a, 0xf3, 0x1f, 0x07, 0x06, 0x08, 0x1a, 0x05, 0xeb, 0x02,
  0x26, 0x01, 0x0a, 0x04, 0xfc, 0x18, 0x18, 0xf7, 0x3c, 0x01, 0x00, 0x1e,
  0x10, 0x27, 0x0c, 0x20, 0x08, 0x1e, 0xda, 0x20, 0x0e, 0x0d, 0x01, 0x0f,
  0xf7, 0x1f, 0xf6, 0x10, 0xe2, 0xb6, 0xf5, 0xe7, 0xe0, 0xf7, 0xea, 0x0a,
  0xf5, 0x0a, 0x04, 0x19, 0xc9, 0x00, 0xf3, 0x1a, 0x03, 0x0f, 0x01, 0xf0,
  0x1f, 0xf8, 0x02, 0xf7, 0xcb, 0xd3, 0x03, 0x00, 0x04, 0xdd, 0x18, 0x0c,
  0x04, 0x0f, 0xde, 0x20, 0x01, 0x17, 0x25, 0x0c, 0xf8, 0xe9, 0xcf, 0xf5,
  0x81, 0xe5, 0x07, 0xf0, 0xe2, 0xf7, 0xdf, 0x0f, 0xeb, 0xd6, 0xf8, 0xe5,
  0xcb, 0xc2, 0x13, 0xfb, 0x0e, 0xe3, 0x07, 0xf7, 0xf5, 0x04, 0xf5, 0x29,
  0xff, 0xee, 0x10, 0xed, 0x01, 0x00, 0xf3, 0xfe, 0xb8, 0xf7, 0xfc, 0xee,
  0xdd, 0xef, 0xee, 0xf2, 0x00, 0xf3, 0x04, 0xf6, 0xdd, 0xd3, 0xf3, 0x02,
  0xe8, 0xe6, 0x0b, 0xef, 0xf2, 0x01, 0xeb, 0xe8, 0xfb, 0x00, 0x0c, 0xfe,
  0x11, 0xdf, 0xe3, 0xf2, 0xc3, 0x0c, 0xee, 0xf8, 0x09, 0xea, 0xf4, 0xef,
  0x20, 0xf6, 0xfe, 0xdc, 0x13, 0xf6, 0xe8, 0x27, 0x04, 0xc2, 0x07, 0xd9,
  0x0d, 0x00, 0xef, 0x1e, 0x03, 0xf9, 0x2b, 0x06, 0x11, 0xf3, 0xe7, 0x07,
  0xcc, 0x0c, 0xff, 0xee, 0x00, 0xf9, 0xe5, 0x0c, 0x00, 0xcb, 0x0d, 0xec,
  0x07, 0x0f, 0x0c, 0x0b, 0xff, 0xe2, 0xf9, 0xf3, 0x18, 0x07, 0x19, 0x14,
  0x05, 0x22, 0x04, 0xe9, 0x03, 0x11, 0x1e, 0xff, 0x17, 0x02, 0x12, 0xf1,
  0xfe, 0xf9, 0xeb, 0x0d, 0x13, 0x0a, 0xf9, 0x04, 0x1b, 0x17, 0xf6, 0x07,
  0x0d, 0x0b, 0xf8, 0xfa, 0x19, 0xea, 0x09, 0xf5, 0xfd, 0x23, 0xe9, 0x04,
  0x00, 0xd7, 0xb9, 0x0f, 0x14, 0x12, 0x33, 0xf4, 0x05, 0xdb, 0xeb, 0x0c,
  0xdb, 0xc6, 0xff, 0xde, 0x1b, 0x0d, 0xe8, 0x3a, 0xe4, 0xdc, 0x07, 0xe0,
  0xf9, 0xbc, 0xec, 0x12, 0xeb, 0x1b, 0xc4, 0xaf, 0xe6, 0xe6, 0xe2, 0xf3,
  0x23, 0xe8, 0x10, 0x28, 0xc5, 0xab, 0xea, 0xe2, 0xde, 0x2f, 0xff, 0xfe,
  0xff, 0x04, 0xe2, 0x44, 0xf5, 0xe8, 0x48, 0x11, 0x01, 0xdc, 0xe6, 0x1a,
  0xd9, 0xfe, 0x93, 0xbf, 0xbf, 0x22, 0x00, 0xe8, 0x54, 0xd6, 0xf0, 0x53,
  0xfd, 0xff, 0x07, 0xd5, 0x08, 0x55, 0xa9, 0xdf, 0xf3, 0xf3, 0xe8, 0x31,
  0xc9, 0xed, 0x0a, 0x48, 0xc8, 0x9a, 0xd7, 0x24, 0xa5, 0xff, 0xfd, 0x1b,
  0x0e, 0x11, 0x16, 0x1a, 0x06, 0x0f, 0xf5, 0x1b, 0x0f, 0x28, 0x17, 0x01,
  0x02, 0x15, 0x15, 0x21, 0x32, 0xfc, 0x1d, 0x06, 0x28, 0x15, 0x16, 0x01,
  0x24, 0xfe, 0x18, 0xf3, 0x1d, 0x29, 0xe5, 0x26, 0x01, 0x03, 0x2e, 0x04,
  0x12, 0x18, 0x13, 0xf4, 0x10, 0x02, 0x23, 0x16, 0xe5, 0x0a, 0xf1, 0x0d,
  0x38, 0x2d, 0x17, 0x38, 0xf4, 0x0b, 0xdb, 0x01, 0x0c, 0xc7, 0x07, 0x18,
  0x0c, 0x02, 0xd2, 0x22, 0xe4, 0x04, 0x2b, 0x04, 0x06, 0x16, 0x1d, 0xea,
  0x0d, 0xf8, 0x28, 0x22, 0x15, 0x10, 0x0d, 0x1a, 0x32, 0x39, 0xeb, 0x53,
  0x00, 0x05, 0xdc, 0xfc, 0x03, 0xeb, 0x02, 0xeb, 0x23, 0x0e, 0xeb, 0x10,
  0x0d, 0x1c, 0x06, 0xec, 0x00, 0xf9, 0xc3, 0x27, 0x06, 0xf2, 0x07, 0xf8,
  0xec, 0x03, 0xf8, 0xf9, 0xbd, 0xc0, 0x1b, 0xc2, 0x02, 0x1b, 0x23, 0x2e,
  0xf6, 0xe9, 0xc2, 0x1d, 0x09, 0xe0, 0x0a, 0x17, 0x19, 0x17, 0x0d, 0xfd,
  0xe4, 0x01, 0xe4, 0x00, 0x12, 0x0a, 0x10, 0x12, 0xfc, 0xe8, 0xee, 0xf2,
  0xff, 0xc7, 0xeb, 0xb2, 0x0d, 0x03, 0xd3, 0x26, 0x15, 0xee, 0xed, 0xc0,
  0x01, 0xfe, 0x06, 0x20, 0x07, 0xdf, 0x14, 0x1d, 0xbc, 0x01, 0xed, 0xdf,
  0x1c, 0x0e, 0x09, 0x1b, 0x10, 0xeb, 0x21, 0x15, 0xfd, 0xbd, 0xe5, 0x9c,
  0xf3, 0x18, 0xf6, 0xf5, 0x10, 0x2f, 0x12, 0x81, 0x0d, 0x03, 0xef, 0x17,
  0x36, 0xe5, 0xeb, 0x56, 0xb1, 0xf8, 0xac, 0x03, 0x09, 0x50, 0xe2, 0xe8,
  0x2d, 0xbe, 0x32, 0x19, 0xda, 0x2e, 0xd2, 0x01, 0xfd, 0xe1, 0x17, 0xfd,
  0x0c, 0x07, 0x3c, 0x5a, 0x1e, 0x16, 0x1f, 0xe8, 0x4c, 0x29, 0x09, 0xfa,
  0x8e, 0x02, 0xfb, 0x2f, 0x03, 0x18, 0xf3, 0x22, 0xd9, 0xff, 0x6a, 0x15,
  0xeb, 0xc7, 0x45, 0xf8, 0x2f, 0xf1, 0x43, 0x23, 0x38, 0x43, 0x07, 0x3d,
  0x3b, 0xf1, 0x0a, 0xca, 0xd8, 0xfd, 0x0b, 0x19, 0xc3, 0xe1, 0xd4, 0xd0,
  0x24, 0x24, 0xcf, 0xe3, 0x0f, 0xdc, 0xeb, 0xfe, 0xdc, 0x0c, 0xe9, 0x06,
  0xc1, 0x0c, 0xcb, 0xb1, 0xdb, 0xff, 0xff, 0xfd, 0xd6, 0x15, 0x47, 0x1b,
  0x24, 0x13, 0xc3, 0x03, 0xe9, 0xe1, 0x0d, 0x10, 0xc4, 0xfc, 0x12, 0xe8,
  0x01, 0xed, 0x2c, 0xd8, 0xe5, 0xea, 0x02, 0xe5, 0x30, 0xf1, 0x3a, 0x26,
  0x41, 0x17, 0x00, 0x0f, 0x44, 0xe3, 0xd8, 0xd8, 0xc4, 0xe4, 0xd0, 0x35,
  0x81, 0xf3, 0xcb, 0xca, 0x15, 0x22, 0xe3, 0xf1, 0x01, 0xa2, 0xea, 0xed,
  0xfc, 0x1e, 0xea, 0x14, 0xc3, 0xe3, 0xa2, 0xad, 0xd1, 0x0d, 0x30, 0x42,
  0xd8, 0xde, 0x0d, 0xef, 0x31, 0xd8, 0xde, 0x2f, 0xe1, 0x1c, 0x16, 0x00,
  0xed, 0x15, 0x02, 0xec, 0x03, 0xb2, 0x62, 0xf6, 0xf8, 0x05, 0x1a, 0xdb,
  0x3d, 0x13, 0x33, 0x11, 0x3a, 0x6d, 0x2c, 0x37, 0x35, 0x1a, 0x1d, 0xde,
  0xee, 0xd2, 0xf0, 0x39, 0xab, 0x20, 0xc2, 0xb8, 0x10, 0x24, 0xe8, 0xe6,
  0x06, 0x84, 0x41, 0xfc, 0xf9, 0x10, 0x12, 0x07, 0x00, 0xf6, 0xd6, 0xbb,
  0x10, 0x06, 0x11, 0x17, 0xeb, 0x13, 0x17, 0xf9, 0x14, 0xe4, 0x02, 0x2d,
  0xc1, 0x10, 0x19, 0xed, 0x13, 0xe9, 0x27, 0xfa, 0x15, 0xb2, 0x3d, 0x0d,
  0x15, 0x47, 0x22, 0xdd, 0x16, 0xef, 0xfb, 0xd8, 0x45, 0x5e, 0x2e, 0xdf,
  0x5d, 0x16, 0x12, 0xe3, 0x13, 0x0b, 0xfc, 0xbc, 0x18, 0xfd, 0x13, 0xf1,
  0xf2, 0x00, 0x18, 0x14, 0xe0, 0xe1, 0xf2, 0x11, 0xf1, 0xcf, 0x2b, 0xa0,
  0xf6, 0x1b, 0x12, 0xf9, 0x1c, 0x0e, 0xec, 0x8e, 0xfb, 0xf5, 0xe6, 0xd9,
  0x1c, 0xc7, 0xc7, 0xec, 0xf3, 0x0a, 0x47, 0xdd, 0x12, 0xf3, 0x29, 0x33,
  0xe8, 0xf1, 0x06, 0xe7, 0x2b, 0x1f, 0x09, 0xeb, 0xf9, 0xf6, 0xd5, 0xe2,
  0x00, 0x17, 0x2d, 0x04, 0x32, 0xdf, 0xe5, 0xd4, 0x15, 0xde, 0xea, 0x29,
  0x2f, 0x00, 0xd1, 0xdf, 0xfb, 0x13, 0xca, 0xb9, 0xea, 0xc4, 0x34, 0x01,
  0x06, 0x05, 0x24, 0x12, 0x1f, 0x28, 0x08, 0xf1, 0xfa, 0x0d, 0x38, 0x36,
  0xe0, 0xd5, 0xf9, 0xd7, 0x04, 0x25, 0x04, 0x16, 0x36, 0x08, 0x02, 0x0a,
  0x07, 0x3b, 0x0f, 0xda, 0xfd, 0xd9, 0x23, 0x02, 0x16, 0x1f, 0x01, 0x15,
  0x25, 0x06, 0x16, 0x12, 0x0f, 0x17, 0x10, 0x2a, 0x06, 0xf9, 0xf0, 0x10,
  0xd8, 0x23, 0x38, 0x0c, 0x62, 0x06, 0x13, 0x27, 0x16, 0x2c, 0x3c, 0x3c,
  0x01, 0x33, 0xd3, 0x30, 0xee, 0xeb, 0x2a, 0xbc, 0xf5, 0x4c, 0x01, 0x22,
  0xf0, 0xd5, 0x1c, 0xc6, 0xc9, 0x03, 0xdf, 0x3e, 0xf0, 0xfe, 0xea, 0x01,
  0x46, 0xfa, 0x41, 0xd7, 0x17, 0xc8, 0x3c, 0x34, 0xf1, 0xa3, 0x13, 0xed,
  0x1b, 0x1c, 0xdf, 0xec, 0xe7, 0x04, 0xd6, 0xfc, 0x05, 0x06, 0x0b, 0xb6,
  0xf8, 0x09, 0xd7, 0xe3, 0x04, 0x10, 0x00, 0x08, 0x55, 0xf3, 0x16, 0x16,
  0xf1, 0xed, 0x05, 0x12, 0xe8, 0xe1, 0x08, 0x08, 0xf6, 0xd9, 0xf5, 0xe8,
  0x08, 0x19, 0x13, 0x15, 0xf0, 0x00, 0x15, 0xc6, 0x09, 0x07, 0xd0, 0xf1,
  0xf9, 0x01, 0x05, 0xd4, 0xf3, 0xd1, 0x92, 0x26, 0xfe, 0x1f, 0xdc, 0xcf,
  0xe3, 0x26, 0xfc, 0xe4, 0xd4, 0xd0, 0xf2, 0xe7, 0xfb, 0xed, 0xf2, 0xf6,
  0xd4, 0xbe, 0xd5, 0x2b, 0xdf, 0xd8, 0x1e, 0x07, 0xfa, 0x11, 0x46, 0xe8,
  0x61, 0x05, 0xfe, 0x22, 0x1d, 0x3b, 0x1d, 0x21, 0x0a, 0x6d, 0xf9, 0x3f,
  0x12, 0x00, 0xf0, 0x01, 0x12, 0x36, 0xd0, 0x0c, 0xf6, 0xd7, 0x0a, 0x81,
  0xcb, 0x06, 0xf0, 0x3c, 0x17, 0x13, 0x0d, 0x03, 0x64, 0x06, 0x08, 0xfb,
  0xf9, 0xf0, 0x1b, 0x14, 0xd1, 0xfd, 0xf9, 0x12, 0x2f, 0x5e, 0xe7, 0x3e,
  0x04, 0x3f, 0x09, 0x15, 0x0f, 0xa8, 0x2f, 0x99, 0xe1, 0xeb, 0x95, 0x03,
  0x11, 0x08, 0x1b, 0x09, 0x67, 0x29, 0x27, 0x2a, 0x2b, 0x0e, 0x24, 0xee,
  0x0c, 0x39, 0x0a, 0xf4, 0x31, 0x02, 0x0b, 0x14, 0x10, 0x08, 0xfa, 0x1a,
  0x04, 0xdf, 0xfc, 0xcb, 0xed, 0x16, 0xdb, 0x1d, 0xd9, 0x0b, 0x14, 0xfe,
  0x5e, 0xf1, 0x23, 0xe5, 0x1e, 0x16, 0x25, 0x1f, 0xf1, 0xc8, 0xfb, 0x16,
  0x3d, 0x37, 0xd9, 0x21, 0xe2, 0x19, 0xdc, 0xfd, 0x18, 0x05, 0x07, 0xa3,
  0xe5, 0x0a, 0x81, 0xde, 0xfd, 0xee, 0xe7, 0x11, 0x5b, 0xd8, 0x1e, 0x0a,
  0xf1, 0xda, 0xcd, 0xfb, 0xf0, 0xb4, 0x0d, 0xeb, 0x10, 0x49, 0xe6, 0x0d,
  0x17, 0x00, 0x2a, 0x20, 0x0e, 0x01, 0x1c, 0x22, 0x0d, 0xf0, 0xfa, 0xb8,
  0xec, 0xfa, 0x1d, 0xec, 0xf7, 0xcb, 0xf9, 0x21, 0x09, 0x30, 0xc9, 0xd8,
  0xf3, 0x3b, 0x11, 0x16, 0xd1, 0xf4, 0xff, 0xea, 0x0c, 0x03, 0x0c, 0xfc,
  0xf3, 0xcc, 0xf7, 0x11, 0xd3, 0xea, 0xd9, 0x1a, 0x10, 0x1b, 0x36, 0xdf,
  0x19, 0x04, 0xfe, 0x1d, 0x20, 0x26, 0x41, 0x21, 0x10, 0x13, 0x13, 0x2f,
  0xed, 0xc2, 0x03, 0xe2, 0x05, 0x49, 0x04, 0x0f, 0xf6, 0x2c, 0xec, 0x98,
  0xed, 0xf6, 0xda, 0x31, 0x16, 0x24, 0x3b, 0x04, 0x3e, 0xf2, 0x24, 0x1e,
  0x33, 0x24, 0x1b, 0x39, 0x17, 0xf9, 0xf7, 0x24, 0x36, 0x1b, 0x1e, 0x51,
  0x03, 0x35, 0xf0, 0x1c, 0xeb, 0xc5, 0x0e, 0xda, 0x06, 0xf6, 0x07, 0x0a,
  0xee, 0xf6, 0xe0, 0x27, 0xe8, 0xf8, 0x4d, 0xf7, 0x05, 0xc0, 0x04, 0x1c,
  0xd7, 0x05, 0xed, 0xea, 0x1a, 0x44, 0xd6, 0x52, 0xec, 0x0c, 0x1e, 0xe9,
  0x19, 0xe3, 0x2e, 0x5b, 0x29, 0xe8, 0xd8, 0xa2, 0xe9, 0x01, 0xe8, 0xe0,
  0xb7, 0xc9, 0xe1, 0x16, 0xd9, 0x08, 0xa1, 0xc2, 0xd2, 0x0f, 0x13, 0xd4,
  0xc7, 0xd6, 0xf9, 0xdb, 0xf6, 0xd5, 0x3e, 0x05, 0x19, 0xfb, 0xe6, 0x32,
  0xfe, 0xd9, 0xfc, 0xe3, 0xed, 0x28, 0x11, 0xfb, 0xd5, 0xc7, 0xb4, 0x04,
  0x0f, 0x34, 0xbb, 0xe1, 0x0e, 0x3d, 0xe2, 0xf6, 0xac, 0xbd, 0x0c, 0xd7,
  0x03, 0xd6, 0x1b, 0xfa, 0xfd, 0xfa, 0xeb, 0x3c, 0x03, 0xd1, 0x2c, 0x14,
  0x3e, 0x08, 0xee, 0x40, 0x6d, 0x07, 0xe6, 0xf7, 0x0c, 0xf6, 0x03, 0xbd,
  0xed, 0xed, 0x34, 0x13, 0x10, 0x3e, 0xde, 0xf2, 0x1b, 0x02, 0x0e, 0x13,
  0xf4, 0x34, 0x38, 0x1a, 0xee, 0x0e, 0xe5, 0xed, 0xe1, 0x32, 0xcf, 0xe8,
  0x4b, 0x17, 0x28, 0xf5, 0x03, 0x17, 0x2c, 0xf9, 0x09, 0xd4, 0xf8, 0xdd,
  0x14, 0xfb, 0xd3, 0x17, 0xeb, 0xf6, 0x15, 0xfc, 0x1c, 0x02, 0xe1, 0xe4,
  0x00, 0x08, 0x88, 0x04, 0xf4, 0xcd, 0xd0, 0x36, 0x81, 0x24, 0x00, 0xc3,
  0x2c, 0xec, 0xb7, 0x02, 0x12, 0xae, 0x0b, 0xe0, 0x08, 0xc9, 0xa5, 0x1e,
  0xdd, 0xb7, 0xde, 0xce, 0xed, 0x11, 0xef, 0xc2, 0xfb, 0x2d, 0x1b, 0x07,
  0x01, 0x2e, 0x02, 0xdb, 0x4a, 0xcf, 0xce, 0xf3, 0x15, 0x3b, 0x28, 0xf6,
  0xe9, 0x12, 0x11, 0x1c, 0x0b, 0xea, 0x21, 0x19, 0xf3, 0x06, 0xfa, 0x30,
  0x09, 0xef, 0xfa, 0x23, 0xd2, 0xea, 0xf3, 0x37, 0x16, 0xfb, 0x15, 0x46,
  0x6d, 0x32, 0xdf, 0xea, 0x1f, 0x0a, 0xd5, 0x28, 0x02, 0x14, 0x23, 0x03,
  0x16, 0x28, 0xeb, 0xd9, 0x18, 0x48, 0xfc, 0x20, 0x24, 0xa5, 0x14, 0xc6,
  0xb4, 0x2f, 0xd7, 0x10, 0x53, 0x36, 0x16, 0x2e, 0x32, 0xfb, 0x11, 0x0b,
  0xe3, 0xce, 0xe7, 0xf1, 0xe8, 0x19, 0x3a, 0x28, 0x12, 0x06, 0x06, 0x02,
  0x2f, 0x1a, 0x20, 0x29, 0x12, 0x1a, 0x24, 0xdc, 0x72, 0x08, 0x96, 0xdc,
  0xf3, 0xf2, 0xfa, 0x22, 0x53, 0xf3, 0xf6, 0x45, 0xe1, 0x1e, 0xb5, 0xc7,
  0xe5, 0x47, 0x15, 0xec, 0xf3, 0x55, 0xf2, 0x49, 0xec, 0x36, 0x37, 0x3e,
  0xe1, 0xf7, 0x39, 0x1b, 0x12, 0xde, 0x08, 0x11, 0x09, 0x3d, 0xdf, 0xd6,
  0x35, 0xac, 0x9d, 0x0f, 0xeb, 0x01, 0xec, 0xe2, 0x08, 0xfa, 0xfb, 0xc6,
  0xeb, 0xde, 0x16, 0xa8, 0x1c, 0xe7, 0x60, 0x3e, 0x02, 0xd9, 0x05, 0x34,
  0xef, 0xcc, 0xef, 0x08, 0x08, 0xbf, 0xb8, 0x0a, 0xd7, 0x12, 0x18, 0xa8,
  0xb5, 0x1d, 0x27, 0x1a, 0xf8, 0x9f, 0xfd, 0xee, 0xef, 0x01, 0xee, 0x16,
  0xec, 0x01, 0xd7, 0xc8, 0xeb, 0x0b, 0x33, 0x23, 0x1a, 0x0a, 0x15, 0xbf,
  0xe5, 0xff, 0xf3, 0xe3, 0xcf, 0xf3, 0xb9, 0xdd, 0x1f, 0x0f, 0xec, 0xec,
  0x26, 0xe1, 0x13, 0x08, 0xe3, 0xcc, 0xfe, 0xc8, 0xfa, 0xd1, 0x02, 0xe8,
  0xef, 0x2d, 0xbb, 0x02, 0xe0, 0x0e, 0x36, 0x0b, 0x0d, 0xed, 0xec, 0xf2,
  0x88, 0x24, 0x35, 0xd2, 0x00, 0xf0, 0x1c, 0x29, 0x1e, 0xbc, 0x20, 0xf3,
  0xef, 0xe9, 0xf3, 0xe2, 0xf9, 0xe4, 0xd2, 0xb8, 0x21, 0x66, 0xd8, 0x03,
  0x3c, 0x02, 0x02, 0xed, 0xf6, 0xe7, 0xf7, 0xd7, 0xa5, 0x02, 0x03, 0xfa,
  0xed, 0xe6, 0xf9, 0x00, 0xe1, 0x0b, 0xf0, 0x10, 0xe0, 0xe2, 0x15, 0xf5,
  0x0b, 0xf6, 0xea, 0xd8, 0xeb, 0xe5, 0xe8, 0x0a, 0xfb, 0xe7, 0x16, 0x08,
  0xc7, 0x01, 0xef, 0x1c, 0x81, 0xfc, 0xec, 0xf6, 0x35, 0xf3, 0xeb, 0xee,
  0x32, 0x18, 0xdd, 0x02, 0xe4, 0x09, 0xd4, 0x1a, 0xb6, 0xd0, 0xb8, 0xf7,
  0xe1, 0x0c, 0xd7, 0x04, 0xc8, 0x12, 0x2b, 0x34, 0x16, 0xed, 0x05, 0x22,
  0xe8, 0x39, 0x21, 0x04, 0x13, 0xff, 0x05, 0x0b, 0x0c, 0x01, 0x1d, 0x21,
  0x0c, 0xf4, 0x15, 0xca, 0xfe, 0x04, 0x06, 0xf1, 0x1d, 0x3a, 0xfd, 0x1d,
  0x1e, 0x2a, 0xfe, 0xf7, 0x07, 0x16, 0xfd, 0x07, 0x0b, 0xf1, 0xeb, 0x0b,
  0xf8, 0x0e, 0x1e, 0x1a, 0xf7, 0xf1, 0xe8, 0xf0, 0xf2, 0x0f, 0x0c, 0x02,
  0x13, 0x1a, 0x19, 0x1b, 0xde, 0x02, 0x27, 0x08, 0xfd, 0x02, 0x16, 0xf3,
  0xfd, 0x07, 0x06, 0x21, 0xae, 0x06, 0xe9, 0xe7, 0x14, 0x0c, 0xed, 0xf5,
  0x1b, 0xd9, 0x00, 0x0c, 0xf5, 0x24, 0x03, 0x0b, 0x0b, 0xe9, 0xd9, 0xe9,
  0xfe, 0x3c, 0x01, 0x0f, 0x33, 0x10, 0x46, 0x00, 0x10, 0xfb, 0xec, 0xe5,
  0xe4, 0x0f, 0x40, 0x05, 0xf8, 0xcc, 0x08, 0x38, 0xe8, 0xeb, 0x25, 0xf2,
  0x0e, 0xcd, 0x0e, 0xbf, 0x10, 0x1c, 0xfa, 0xf8, 0x0f, 0x3a, 0xe2, 0xfa,
  0x26, 0xfa, 0xe0, 0xc8, 0xfb, 0x0a, 0xf7, 0xee, 0xfd, 0xef, 0x04, 0x0a,
  0xef, 0xf8, 0xe8, 0xe9, 0x00, 0xfc, 0xef, 0xe0, 0xe3, 0xea, 0xfa, 0xf8,
  0xec, 0x11, 0xfe, 0xfe, 0xee, 0x26, 0xfd, 0xfd, 0xe0, 0xf0, 0x0e, 0x12,
  0xde, 0x00, 0x0f, 0xe5, 0x37, 0xe6, 0xe1, 0x2f, 0x13, 0x11, 0xfa, 0x0a,
  0x03, 0x28, 0xd8, 0x21, 0xfb, 0xe2, 0x10, 0x06, 0xf5, 0x01, 0x05, 0x25,
  0x02, 0x81, 0xcc, 0xf3, 0xd5, 0x0e, 0xfe, 0x0b, 0x28, 0x52, 0x31, 0xd6,
  0x5d, 0xfe, 0x21, 0x37, 0xfb, 0xfb, 0x2c, 0x30, 0x17, 0x3b, 0x10, 0x19,
  0x23, 0xdd, 0x39, 0xe1, 0x20, 0x2a, 0x32, 0x51, 0x24, 0xbc, 0xf8, 0xad,
  0xec, 0x16, 0xd1, 0x30, 0xe6, 0x14, 0x14, 0xce, 0x40, 0xf6, 0x1e, 0x19,
  0xf2, 0x03, 0x1b, 0x26, 0xe0, 0xfc, 0xb3, 0x2b, 0x07, 0xe6, 0x1b, 0xf5,
  0x01, 0x2a, 0xd6, 0x04, 0xe4, 0xa1, 0x08, 0x92, 0xec, 0xfd, 0xb5, 0x02,
  0xe5, 0xd9, 0xcc, 0xf3, 0xb0, 0xf4, 0xb7, 0xff, 0xd2, 0xe2, 0xce, 0xc9,
  0x07, 0x27, 0xee, 0xf2, 0x05, 0x04, 0xe6, 0x3b, 0xf2, 0xca, 0xfd, 0xe1,
  0xd8, 0xa0, 0xf5, 0x27, 0xb2, 0x0c, 0x05, 0xf6, 0xfa, 0xff, 0x11, 0x2d,
  0xba, 0x0c, 0xfd, 0x0b, 0xe1, 0x1d, 0xd3, 0xec, 0x1d, 0x0d, 0x2c, 0x0c,
  0x05, 0x26, 0x03, 0x27, 0x0d, 0xda, 0x23, 0xf5, 0x15, 0x0b, 0x28, 0x32,
  0x0f, 0x27, 0x01, 0x37, 0x20, 0xf2, 0xe5, 0xd8, 0xe8, 0xfa, 0x20, 0xe5,
  0xdd, 0xfe, 0xef, 0x03, 0xc7, 0xdb, 0xf0, 0xfc, 0xdf, 0xe9, 0x2d, 0xeb,
  0x0c, 0x03, 0xfa, 0xed, 0xf9, 0xef, 0x05, 0xd6, 0x17, 0xd1, 0xfa, 0xf2,
  0x08, 0x05, 0xf0, 0x16, 0xfe, 0xf0, 0xf9, 0x05, 0x37, 0x24, 0xe5, 0xd2,
  0x19, 0x0f, 0x0c, 0xdf, 0xfd, 0x14, 0xf3, 0xff, 0xfa, 0xd8, 0x2b, 0x02,
  0x08, 0x19, 0xfc, 0x19, 0x23, 0x1a, 0x53, 0x3b, 0x32, 0x02, 0xe5, 0xea,
  0xc5, 0x0c, 0x1f, 0x10, 0xf0, 0xf6, 0x0c, 0xf7, 0x05, 0x0c, 0x2d, 0x0d,
  0x08, 0xf5, 0x41, 0xd9, 0x30, 0xdc, 0x19, 0xec, 0x2e, 0x33, 0xf4, 0x48,
  0x46, 0xf7, 0x22, 0x0b, 0xce, 0xea, 0xe8, 0xc0, 0xed, 0xe0, 0xc0, 0xfb,
  0xb4, 0xdb, 0xfb, 0xe7, 0xee, 0x11, 0xc2, 0xdb, 0xe3, 0xac, 0xfc, 0xd8,
  0xec, 0x15, 0xf4, 0xde, 0xa8, 0xdc, 0xd8, 0xef, 0xbf, 0xe1, 0xd7, 0xcf,
  0xe0, 0xb9, 0xce, 0x23, 0x9c, 0x15, 0x21, 0xc4, 0xfd, 0xf3, 0xe9, 0xf2,
  0x12, 0xc7, 0x08, 0xcb, 0xff, 0xf1, 0xac, 0x1d, 0xe2, 0xb8, 0xe7, 0xd8,
  0x11, 0x1c, 0x00, 0x22, 0x2f, 0x06, 0x2a, 0xd4, 0x07, 0x02, 0xf8, 0x1b,
  0xe0, 0xff, 0x04, 0x1a, 0x0c, 0x10, 0x24, 0xe2, 0x12, 0x10, 0x07, 0x16,
  0xd7, 0xcc, 0x0a, 0xf7, 0x14, 0x14, 0xdc, 0xee, 0x0b, 0xca, 0xcf, 0x35,
  0xec, 0x1a, 0x36, 0x05, 0xf8, 0xd6, 0x07, 0x0b, 0x08, 0x24, 0x06, 0xd4,
  0x0a, 0x2a, 0x2d, 0x25, 0x17, 0xbb, 0x10, 0x15, 0x12, 0x0a, 0xda, 0x97,
  0xee, 0x0f, 0xd4, 0xcd, 0x09, 0x02, 0x10, 0xc8, 0xfe, 0x1a, 0xd1, 0xf1,
  0xfc, 0xdd, 0x18, 0x0e, 0xdd, 0x3d, 0x28, 0xe5, 0x19, 0xdc, 0x27, 0x23,
  0x13, 0xe6, 0xef, 0x02, 0x01, 0x16, 0xf0, 0x13, 0xec, 0xda, 0xe5, 0xed,
  0x07, 0x0c, 0xd8, 0x1a, 0x10, 0x03, 0x03, 0xe4, 0xf6, 0x00, 0x0a, 0xd8,
  0xde, 0xd4, 0xee, 0x1d, 0x0d, 0xca, 0xee, 0xfd, 0x07, 0x38, 0xd9, 0x15,
  0xe2, 0xd3, 0xf3, 0x10, 0xda, 0xee, 0xe1, 0xf2, 0xef, 0x92, 0xee, 0xdd,
  0xa2, 0x02, 0xed, 0x02, 0x21, 0x18, 0x23, 0x06, 0x05, 0x29, 0xd0, 0x2c,
  0x20, 0x09, 0x17, 0x15, 0x2d, 0x07, 0x10, 0x19, 0x1c, 0xc4, 0x2e, 0xcd,
  0xfb, 0x22, 0x13, 0x38, 0xff, 0xdb, 0xf9, 0xfd, 0x15, 0x31, 0x21, 0x2a,
  0xfb, 0xff, 0x5e, 0xae, 0x11, 0x1b, 0x25, 0x27, 0xf8, 0x03, 0x27, 0x25,
  0x00, 0x3b, 0xdd, 0x17, 0xe9, 0xbe, 0x06, 0xaf, 0x05, 0x5b, 0xdd, 0x00,
  0xda, 0xe4, 0xb4, 0xc9, 0xe8, 0xfc, 0x08, 0x3a, 0xeb, 0x25, 0x33, 0xd3,
  0x7f, 0xd5, 0x1a, 0x53, 0xfa, 0xd0, 0xeb, 0x08, 0xc0, 0x35, 0xc1, 0x1a,
  0x18, 0x04, 0x27, 0x27, 0xda, 0x3d, 0x0d, 0x3d, 0xdc, 0xb4, 0xef, 0xcf,
  0xb2, 0xec, 0xb1, 0x08, 0x2a, 0x11, 0xe9, 0xe1, 0x34, 0xc0, 0xdb, 0x20,
  0xfa, 0x0c, 0xc4, 0xd7, 0xd4, 0x35, 0x06, 0xfa, 0xf5, 0xf4, 0xf9, 0x43,
  0x25, 0xee, 0x36, 0x42, 0xec, 0x03, 0xf4, 0x4b, 0x20, 0xe7, 0xef, 0x11,
  0xf4, 0x05, 0xfd, 0x01, 0x15, 0x05, 0x33, 0x25, 0x17, 0xe1, 0x19, 0x27,
  0xf8, 0x08, 0x01, 0x06, 0x0f, 0xec, 0xde, 0x20, 0xf3, 0x10, 0xec, 0xf7,
  0x06, 0xfd, 0x06, 0x07, 0xdc, 0x02, 0x01, 0xf0, 0xda, 0xef, 0xf4, 0xfb,
  0x50, 0x14, 0x3b, 0x24, 0x13, 0xcd, 0xff, 0x3e, 0x1c, 0xde, 0xd5, 0x05,
  0x16, 0x07, 0xf4, 0x3d, 0xf3, 0x22, 0xf3, 0xec, 0x0e, 0xe2, 0xf1, 0xf4,
  0x0e, 0xfa, 0xb2, 0xc8, 0x02, 0x0f, 0xed, 0x19, 0x56, 0x48, 0x4d, 0x07,
  0x39, 0x0e, 0xc9, 0x33, 0x16, 0xc5, 0xc6, 0xf2, 0x39, 0x2a, 0xe4, 0x49,
  0xf2, 0xf0, 0x0f, 0x21, 0xfd, 0xf1, 0xee, 0x3b, 0x0d, 0x29, 0xf8, 0xf0,
  0x24, 0xec, 0xff, 0xef, 0x1c, 0x10, 0xd4, 0xda, 0x17, 0xec, 0x38, 0x04,
  0xdf, 0xfc, 0x10, 0x20, 0x21, 0xf0, 0x03, 0xf9, 0x1e, 0x22, 0xd3, 0xdc,
  0x28, 0xf9, 0x0c, 0xb7, 0x05, 0xfd, 0xd1, 0xf0, 0xfc, 0x2a, 0x33, 0xc9,
  0x7f, 0xba, 0x0d, 0x19, 0x13, 0x03, 0x12, 0xfb, 0xb4, 0x72, 0xff, 0x18,
  0x14, 0x06, 0xf5, 0xf9, 0xec, 0x23, 0xff, 0x24, 0x00, 0xe4, 0xe4, 0x82,
  0xfc, 0xd8, 0xad, 0x37, 0x17, 0x53, 0x1b, 0xf4, 0x64, 0xee, 0xe1, 0x30,
  0xe4, 0x31, 0xf4, 0xdb, 0xcf, 0x42, 0x42, 0xf6, 0xcd, 0xff, 0xf0, 0xe0,
  0x33, 0xe3, 0x3f, 0x2f, 0x0c, 0x35, 0xd2, 0xc8, 0x00, 0xcd, 0xd7, 0x35,
  0xd3, 0xe0, 0x19, 0x0f, 0x2d, 0x39, 0xcd, 0xc8, 0x0e, 0x2e, 0x22, 0xde,
  0x2b, 0xb8, 0xeb, 0xfe, 0x07, 0xd9, 0xec, 0xa3, 0xf3, 0x1a, 0xcb, 0xf8,
  0xf6, 0x19, 0x09, 0xfb, 0xe3, 0x23, 0x2a, 0x36, 0x0a, 0xcb, 0xdc, 0x2e,
  0x72, 0x27, 0x2a, 0xb1, 0xe9, 0xd1, 0xd7, 0x20, 0xde, 0x89, 0xf6, 0x10,
  0x26, 0x29, 0xff, 0x15, 0xfa, 0x15, 0x12, 0xfe, 0xf2, 0x0a, 0x0b, 0x18,
  0x0b, 0xec, 0xe4, 0xa6, 0xc5, 0xe8, 0x0f, 0x05, 0x43, 0x36, 0x35, 0xff,
  0x01, 0x0b, 0xff, 0x0e, 0x34, 0xcc, 0xee, 0xdd, 0x25, 0x0e, 0x0a, 0x2e,
  0xd8, 0xf2, 0x10, 0x06, 0x04, 0x2a, 0xf1, 0xce, 0xe5, 0x14, 0x24, 0xf5,
  0x0c, 0xf9, 0xef, 0x28, 0x7c, 0xfa, 0x24, 0x30, 0x1f, 0xe7, 0x00, 0x16,
  0x01, 0xd6, 0xf5, 0x04, 0xfb, 0x51, 0xdd, 0x38, 0x12, 0x09, 0x18, 0x1f,
  0xed, 0xae, 0x56, 0x2d, 0xbc, 0x09, 0xc8, 0xf4, 0xf0, 0x28, 0x09, 0x22,
  0x05, 0x19, 0x1c, 0x22, 0x26, 0xeb, 0x23, 0xea, 0xec, 0x46, 0x2f, 0xff,
  0x07, 0x2a, 0xe8, 0xfe, 0x01, 0xd1, 0x35, 0x09, 0x31, 0x04, 0x20, 0x0c,
  0xef, 0x08, 0xca, 0xe4, 0xe4, 0x16, 0x1a, 0xe8, 0x2e, 0xfc, 0xcd, 0x35,
  0xf6, 0x3c, 0x05, 0xf8, 0xf1, 0x1d, 0xd3, 0x2a, 0xf5, 0x17, 0xde, 0xc7,
  0xf1, 0x26, 0xf4, 0x1d, 0xdc, 0x0c, 0x0e, 0xf3, 0xee, 0x01, 0x11, 0x1b,
  0x00, 0xf6, 0x3a, 0xf8, 0x2d, 0xe2, 0x00, 0xbf, 0x06, 0x00, 0x2e, 0x06,
  0x1f, 0x0c, 0xdb, 0x14, 0x2c, 0x10, 0x0e, 0xfd, 0xed, 0x2c, 0x8b, 0xca,
  0x00, 0x03, 0x1b, 0x88, 0x0e, 0xfb, 0x01, 0x37, 0xf9, 0xe8, 0x36, 0xdb,
  0x07, 0xfa, 0x0a, 0x8f, 0x10, 0x2c, 0x0b, 0xfc, 0x04, 0xec, 0xf7, 0xe0,
  0xf1, 0x17, 0xd9, 0xcf, 0xe8, 0xe1, 0xb9, 0xd0, 0x03, 0x7f, 0x14, 0xb5,
  0x32, 0xe8, 0x3d, 0x4c, 0x01, 0xc3, 0xf0, 0x11, 0x9d, 0xfa, 0xc7, 0x01,
  0x03, 0xfe, 0xf2, 0xe4, 0xf7, 0xe1, 0x36, 0xfb, 0xde, 0xeb, 0xc9, 0xcc,
  0x01, 0xbe, 0xe7, 0xe4, 0x07, 0x22, 0x0c, 0x3d, 0x27, 0xe5, 0x4f, 0x08,
  0x1f, 0xf3, 0x0e, 0x23, 0xe1, 0xe6, 0xf2, 0xd8, 0x42, 0x47, 0xf6, 0x19,
  0x12, 0xc3, 0xf5, 0xfc, 0x0a, 0x07, 0xf9, 0xbe, 0x19, 0x0c, 0x0d, 0xef,
  0xfb, 0x4b, 0x25, 0xab, 0x1e, 0x11, 0x21, 0x3a, 0x1f, 0xd5, 0xf9, 0x0c,
  0x95, 0x31, 0x1e, 0xe2, 0x00, 0xe9, 0xfc, 0x1b, 0x06, 0xc9, 0x12, 0xe7,
  0xcd, 0xeb, 0x2f, 0xc3, 0xf5, 0x07, 0x27, 0xf9, 0x0f, 0x6f, 0x09, 0xd5,
  0x49, 0x23, 0x42, 0xf9, 0x04, 0xf6, 0xd9, 0xff, 0xdb, 0x2d, 0x11, 0xcf,
  0xf6, 0x01, 0x0e, 0x10, 0x22, 0x8c, 0x0f, 0xf2, 0xc7, 0xed, 0xea, 0xf8,
  0xc9, 0xe0, 0xce, 0xd7, 0xf0, 0x59, 0xee, 0x37, 0xfb, 0x05, 0x43, 0xc7,
  0x0a, 0x02, 0xf8, 0xde, 0xff, 0xd3, 0x06, 0x0c, 0xe9, 0x00, 0xf9, 0x16,
  0xe0, 0x1a, 0xe5, 0x27, 0xef, 0xe2, 0x1e, 0x0f, 0x1c, 0x1c, 0x0d, 0x0f,
  0xf7, 0xca, 0xea, 0x32, 0x02, 0xe3, 0xf2, 0x00, 0xf0, 0x14, 0x04, 0xe3,
  0xb6, 0xf8, 0x09, 0x0d, 0x07, 0x06, 0xe6, 0xe5, 0xed, 0x0f, 0xd6, 0xdd,
  0xd1, 0xf7, 0xe7, 0x01, 0xe9, 0xcb, 0x09, 0xef, 0xe4, 0xf5, 0x16, 0xf7,
  0xd0, 0xf5, 0xd3, 0x1a, 0xe8, 0xe8, 0x12, 0x15, 0x94, 0x1c, 0x08, 0xed,
  0x08, 0x02, 0x1e, 0x17, 0x01, 0xf1, 0x12, 0xfe, 0xdd, 0xc1, 0xf4, 0xc1,
  0xdb, 0xfc, 0xc6, 0xd6, 0x02, 0x69, 0xeb, 0xe0, 0x25, 0x21, 0x33, 0x0f,
  0xf7, 0x06, 0xe9, 0x12, 0x0a, 0x0b, 0x1a, 0x19, 0xeb, 0xd9, 0xda, 0x01,
  0x09, 0xf8, 0x06, 0xf2, 0x02, 0x1c, 0xf8, 0x1a, 0x11, 0xfc, 0xf1, 0xfe,
  0xe6, 0x02, 0x05, 0x2b, 0x09, 0xf0, 0x05, 0xda, 0xcf, 0xed, 0xf0, 0x0e,
  0xb4, 0x11, 0x09, 0xbd, 0x15, 0x08, 0xff, 0xf5, 0x17, 0xcd, 0x04, 0x00,
  0x18, 0xf8, 0xe6, 0x29, 0xf0, 0xe3, 0xbf, 0xd5, 0x02, 0x30, 0xe5, 0x0f,
  0x1a, 0x1d, 0x32, 0x0f, 0x16, 0xc7, 0xca, 0x1a, 0xbc, 0x0d, 0x10, 0xc7,
  0x0c, 0xe3, 0x04, 0x05, 0x14, 0xd7, 0x31, 0xe0, 0x06, 0x0b, 0x17, 0xf7,
  0x18, 0xff, 0xe1, 0xd3, 0x10, 0x5f, 0xef, 0x1a, 0x25, 0x11, 0x27, 0xe5,
  0x00, 0x04, 0xec, 0x03, 0xce, 0xe9, 0xe6, 0xfb, 0xe4, 0xf0, 0xcb, 0xf3,
  0xf9, 0xf3, 0xfe, 0xee, 0xe0, 0x2c, 0x2e, 0x1b, 0x1d, 0xce, 0x49, 0xfe,
  0x17, 0x0d, 0x0a, 0xf3, 0x1d, 0xe5, 0x0f, 0xfa, 0xf4, 0xe2, 0x0a, 0x22,
  0x81, 0xf7, 0xd9, 0xb7, 0x23, 0x21, 0xee, 0xeb, 0x38, 0xd8, 0x05, 0x02,
  0xf4, 0xef, 0xf0, 0xd9, 0xfe, 0xee, 0xd6, 0xc6, 0x05, 0x29, 0xe2, 0x07,
  0x27, 0x38, 0x57, 0x1d, 0x18, 0xdd, 0xf6, 0x12, 0xf1, 0x32, 0x3b, 0xe8,
  0xf6, 0xf4, 0x3b, 0x21, 0xf8, 0xaf, 0x3e, 0x01, 0xed, 0xf1, 0x11, 0xb8,
  0x1e, 0x19, 0xe3, 0xda, 0x20, 0x5e, 0x17, 0xdc, 0x25, 0x19, 0x16, 0xc9,
  0x3c, 0xe5, 0xe3, 0x22, 0x18, 0x10, 0x0e, 0xff, 0xee, 0xe1, 0x0b, 0x13,
  0x20, 0xba, 0x28, 0x16, 0xf8, 0x15, 0x12, 0xfb, 0x31, 0x14, 0x30, 0x09,
  0x24, 0x15, 0xf8, 0x4e, 0x11, 0x04, 0xe7, 0xd6, 0x01, 0x45, 0x13, 0xdd,
  0x49, 0xf1, 0xf8, 0x48, 0x07, 0x08, 0xe8, 0xfd, 0xde, 0x32, 0x0b, 0x1d,
  0xff, 0x06, 0x31, 0x20, 0x23, 0x1c, 0x1e, 0x45, 0x03, 0xbd, 0x17, 0x19,
  0xc9, 0xfa, 0xb8, 0xf3, 0xcd, 0x2c, 0x1b, 0xfa, 0x4a, 0x0f, 0xe6, 0x1b,
  0x04, 0xfb, 0x15, 0x02, 0x0d, 0x33, 0xd1, 0x13, 0x0e, 0x08, 0x18, 0x0c,
  0xf1, 0x39, 0x05, 0x14, 0xef, 0xd6, 0xd0, 0xb2, 0xc8, 0x03, 0xc8, 0x13,
  0xf7, 0x14, 0x2c, 0xe6, 0x12, 0x0c, 0x2c, 0xed, 0xfc, 0x02, 0x36, 0x26,
  0x1d, 0x0a, 0xfd, 0xfc, 0x26, 0x14, 0xfe, 0x00, 0x06, 0xfe, 0xe4, 0x08,
  0x10, 0xf1, 0x00, 0xca, 0x25, 0x17, 0xde, 0x2c, 0xf3, 0xfb, 0xd8, 0xf7,
  0xfd, 0xec, 0xf0, 0x07, 0xfb, 0xd0, 0xe7, 0x10, 0xc9, 0x02, 0xf3, 0x02,
  0x06, 0x29, 0x04, 0x34, 0xf4, 0xe4, 0xff, 0xee, 0xf6, 0xda, 0x14, 0xc3,
  0x09, 0xd4, 0xa7, 0xf3, 0xee, 0x15, 0x14, 0xc6, 0xe5, 0xe8, 0xdf, 0x28,
  0xef, 0x08, 0xe5, 0xec, 0xf5, 0x44, 0xb5, 0x00, 0xe6, 0xe7, 0x08, 0x08,
  0xf7, 0xf3, 0x10, 0x0b, 0xef, 0xce, 0xd1, 0xba, 0xec, 0xfe, 0xe4, 0x3b,
  0x19, 0xe8, 0x0d, 0x25, 0x81, 0x17, 0x06, 0xdf, 0x0e, 0x11, 0xfc, 0x0b,
  0x2e, 0xff, 0x1f, 0x19, 0x16, 0xde, 0xf5, 0xc6, 0x00, 0xe8, 0x02, 0xd5,
  0x0c, 0x12, 0x04, 0xff, 0x20, 0x2d, 0x34, 0x31, 0xfc, 0xd4, 0xe8, 0xf2,
  0xb2, 0x00, 0x2d, 0xf7, 0x04, 0xe0, 0xf8, 0x18, 0xfd, 0xfe, 0xef, 0xf7,
  0xfb, 0x09, 0x02, 0xea, 0x07, 0xf3, 0xf4, 0xc9, 0x04, 0xf7, 0x2a, 0x03,
  0x16, 0x01, 0xf0, 0xdd, 0xcf, 0xea, 0xe5, 0xf7, 0xaa, 0xe9, 0xee, 0x06,
  0x06, 0x15, 0x03, 0xee, 0x1c, 0x07, 0xc3, 0xda, 0x08, 0xf2, 0xc4, 0x1d,
  0xc3, 0xe0, 0xd5, 0xf0, 0xe2, 0xe3, 0xd6, 0xfb, 0xd4, 0x00, 0x1b, 0x20,
  0x36, 0x06, 0xe1, 0xca, 0x25, 0xf5, 0xed, 0x12, 0xf0, 0xe6, 0xfc, 0x2b,
  0x01, 0x21, 0xf7, 0x00, 0x2a, 0xf8, 0x3e, 0xe8, 0x1a, 0x10, 0x3d, 0x32,
  0x0c, 0x05, 0xf6, 0xfd, 0xfe, 0xf1, 0xca, 0xf3, 0xee, 0x01, 0x04, 0xf6,
  0xec, 0xf1, 0xdd, 0xc2, 0x19, 0x29, 0xdc, 0x07, 0x19, 0xf8, 0xeb, 0x02,
  0x1d, 0x1a, 0xfe, 0x3f, 0xf3, 0xeb, 0xb8, 0xe1, 0xe7, 0xe4, 0x03, 0xcf,
  0xda, 0x05, 0x09, 0x13, 0x23, 0x11, 0xfc, 0x1e, 0xc2, 0x09, 0x29, 0x0d,
  0x01, 0xed, 0x1d, 0x0a, 0xf3, 0xdc, 0x40, 0xfb, 0xfb, 0xe4, 0x33, 0xf3,
  0x24, 0x2c, 0x23, 0x13, 0x1a, 0x32, 0xec, 0x0d, 0x2c, 0x0e, 0xf4, 0x0d,
  0xef, 0xeb, 0xdf, 0x19, 0xb2, 0xd8, 0x9b, 0xbb, 0x09, 0x19, 0xd9, 0xac,
  0x2e, 0xca, 0xa1, 0xc0, 0xdd, 0x1f, 0xe1, 0xf1, 0xf0, 0xca, 0xe6, 0xf2,
  0xdf, 0xb0, 0xec, 0x53, 0xd4, 0xfb, 0x1f, 0x27, 0x47, 0xb5, 0xb7, 0x26,
  0xab, 0x25, 0x05, 0xa8, 0xd2, 0xe7, 0xe7, 0xf7, 0x1f, 0x81, 0x4f, 0x1d,
  0x03, 0xef, 0x10, 0xb4, 0x0f, 0x04, 0xf2, 0xda, 0x30, 0x52, 0x2b, 0x1d,
  0x32, 0x07, 0x1e, 0xd6, 0x09, 0x2d, 0x38, 0xcb, 0x02, 0x15, 0x12, 0xf5,
  0xf6, 0xfc, 0x25, 0x1f, 0xe8, 0xf6, 0xee, 0x22, 0x00, 0xe3, 0x10, 0xd2,
  0xf7, 0x36, 0xfa, 0x07, 0x1e, 0x31, 0x06, 0xa4, 0x26, 0x11, 0xfa, 0x11,
  0x15, 0x14, 0xec, 0x2f, 0xe1, 0x0e, 0xfb, 0x26, 0x0e, 0xf3, 0xed, 0xf9,
  0x2d, 0xd9, 0x31, 0xf5, 0x03, 0x2a, 0x1d, 0x18, 0x0e, 0xf2, 0x1b, 0xfc,
  0x22, 0x15, 0xfe, 0x31, 0x2c, 0x2c, 0x46, 0x0a, 0x08, 0xf0, 0xfc, 0xdd,
  0xf1, 0x1b, 0x32, 0xf2, 0x0a, 0xba, 0x23, 0x17, 0xf2, 0xcd, 0xe3, 0x04,
  0xf2, 0xe0, 0x05, 0xd5, 0xfb, 0x1b, 0xfc, 0xee, 0xfe, 0xf8, 0xf3, 0x88,
  0x21, 0x12, 0xf5, 0xc5, 0x1b, 0xfa, 0x14, 0xf7, 0x27, 0x28, 0xf4, 0x18,
  0x17, 0x32, 0x1e, 0x15, 0x07, 0x40, 0x12, 0x10, 0xf3, 0xdd, 0x10, 0xe6,
  0x03, 0x06, 0xf6, 0x09, 0x06, 0x62, 0xee, 0xb0, 0x01, 0xf0, 0xfa, 0x21,
  0x33, 0x2b, 0xb6, 0x06, 0x67, 0x21, 0x19, 0xd1, 0x19, 0xfe, 0xed, 0x0c,
  0xf5, 0xae, 0x2e, 0xda, 0x07, 0xf1, 0x10, 0x2a, 0x0b, 0x03, 0x39, 0x12,
  0x26, 0x52, 0x04, 0x58, 0x0e, 0xff, 0x14, 0xf3, 0xdd, 0xc0, 0xcf, 0xd4,
  0xf0, 0xf8, 0x1e, 0xad, 0xdc, 0xf5, 0xdf, 0xd3, 0xed, 0xa3, 0x1e, 0xbf,
  0x09, 0xd1, 0xbf, 0x0a, 0xd6, 0xc4, 0xd9, 0xa2, 0x19, 0x12, 0xea, 0x3a,
  0xf0, 0x16, 0xf7, 0xc0, 0x1a, 0x12, 0xfe, 0x3b, 0x17, 0x10, 0xfe, 0x20,
  0xcf, 0xce, 0xc0, 0xe1, 0xf3, 0x43, 0x33, 0xef, 0xca, 0x1d, 0xfe, 0xcc,
  0x0a, 0xdb, 0x4a, 0xed, 0x10, 0x0d, 0x2f, 0xdd, 0xf4, 0xee, 0xe7, 0x08,
  0xf4, 0x1e, 0x35, 0x0d, 0x6b, 0x02, 0xcb, 0x14, 0x33, 0x47, 0x00, 0xea,
  0xe5, 0x14, 0x0e, 0x1a, 0x2a, 0x25, 0x25, 0xd5, 0xf3, 0x37, 0x07, 0x28,
  0xfa, 0xfe, 0xe1, 0x21, 0xe0, 0x1f, 0xde, 0xfd, 0x0f, 0x1a, 0xf9, 0x2c,
  0x74, 0x17, 0xeb, 0x2d, 0x21, 0x0d, 0x0b, 0x16, 0x33, 0x12, 0xff, 0x2f,
  0x33, 0xf8, 0x1e, 0x11, 0x1f, 0x1b, 0x25, 0x2d, 0x3d, 0xee, 0xe8, 0xff,
  0xd0, 0x32, 0xf2, 0x2c, 0xd3, 0x11, 0x05, 0x15, 0x25, 0x1b, 0x24, 0xfb,
  0x15, 0xe2, 0x1c, 0x2b, 0xfe, 0xd9, 0xf8, 0xf9, 0x4c, 0x3b, 0xfd, 0x6d,
  0xef, 0x0e, 0xd8, 0xe0, 0xe7, 0xc1, 0x23, 0xeb, 0x27, 0x3c, 0xb4, 0xee,
  0xe5, 0x00, 0xd6, 0x00, 0x6b, 0x02, 0x22, 0x03, 0xe0, 0xee, 0x0e, 0x08,
  0xaf, 0x1e, 0xe3, 0xda, 0xdf, 0x57, 0xe7, 0x36, 0xff, 0xda, 0xf7, 0x01,
  0xe0, 0xa9, 0x31, 0xca, 0xf6, 0xc8, 0xaf, 0xed, 0xeb, 0xea, 0xe0, 0xf8,
  0x7f, 0xcc, 0xbf, 0xfc, 0xe0, 0x0d, 0x04, 0xea, 0xf2, 0x16, 0xf6, 0xe8,
  0x17, 0xf5, 0xd1, 0x90, 0x0e, 0xfe, 0x11, 0xfa, 0x12, 0xbc, 0xf2, 0xb2,
  0xbe, 0xc6, 0x0c, 0xf0, 0x11, 0x05, 0xe9, 0x36, 0xca, 0x2d, 0x01, 0xfc,
  0x13, 0x15, 0x0f, 0x41, 0x1f, 0x09, 0x0b, 0x1c, 0x45, 0xe7, 0xf8, 0xb1,
  0x0a, 0xfe, 0xdf, 0x1a, 0x12, 0xf2, 0xf6, 0xd0, 0x2a, 0x12, 0xf0, 0x2b,
  0x01, 0x20, 0x2d, 0xfa, 0x7f, 0xf9, 0xee, 0x1f, 0x17, 0x03, 0x16, 0xfc,
  0xe3, 0x11, 0xff, 0x12, 0x08, 0x18, 0xfa, 0x00, 0xf9, 0x36, 0x1d, 0x30,
  0x03, 0xdd, 0x10, 0x11, 0xdb, 0x01, 0xdc, 0x09, 0x0d, 0x26, 0xfc, 0x09,
  0x11, 0xee, 0xe9, 0x26, 0x10, 0x0f, 0xf1, 0xf6, 0x03, 0xeb, 0x16, 0xeb,
  0x0c, 0x04, 0x02, 0x16, 0x16, 0xf1, 0x32, 0x2e, 0x09, 0x08, 0xfa, 0x03,
  0xf0, 0xf5, 0xe7, 0x06, 0xef, 0xfc, 0x0b, 0xe2, 0xd8, 0x21, 0xed, 0xfc,
  0x0c, 0x22, 0x1f, 0x19, 0x0e, 0xf8, 0xf3, 0xf3, 0x08, 0xe1, 0xed, 0xc6,
  0xf9, 0xfc, 0xd2, 0xe7, 0xf7, 0x43, 0xe4, 0xcf, 0x12, 0x0f, 0x08, 0x16,
  0xe3, 0xee, 0x23, 0xfc, 0x2c, 0x02, 0x1f, 0xf1, 0xe7, 0xf5, 0x0b, 0xfa,
  0xf2, 0x14, 0x08, 0xf8, 0x1e, 0x26, 0xda, 0x4d, 0xf6, 0xf5, 0xf8, 0xfa,
  0x0a, 0xf4, 0x06, 0xfd, 0xfd, 0xfd, 0xdd, 0x13, 0xec, 0x02, 0x08, 0xe4,
  0xc5, 0xdc, 0x0a, 0xfb, 0xdf, 0xfc, 0xb9, 0xd7, 0xdc, 0xfb, 0xe5, 0xea,
  0xc2, 0x15, 0xe4, 0x00, 0xdb, 0xeb, 0x0b, 0xfd, 0xe9, 0xec, 0x08, 0xfa,
  0x02, 0xd5, 0xed, 0x11, 0xea, 0xf0, 0x12, 0x0d, 0xd3, 0x00, 0x0c, 0xed,
  0x11, 0x2c, 0x04, 0xf1, 0x34, 0xf7, 0xf4, 0x08, 0xe9, 0xd9, 0xe0, 0xdc,
  0xd8, 0xd7, 0xef, 0xe4, 0xfb, 0x38, 0xe7, 0x27, 0x11, 0x17, 0x36, 0x21,
  0x02, 0x0f, 0x27, 0x12, 0xeb, 0x19, 0x00, 0xea, 0x25, 0x48, 0x1d, 0x22,
  0x31, 0xff, 0x11, 0x21, 0x1a, 0x10, 0xfe, 0x0a, 0x03, 0xee, 0x00, 0x0c,
  0x0c, 0x26, 0xf9, 0xe1, 0x17, 0x19, 0x34, 0x37, 0x06, 0xdd, 0xff, 0x06,
  0x91, 0x15, 0x50, 0xd5, 0x0f, 0x09, 0x21, 0x55, 0xf8, 0xe2, 0xf5, 0xee,
  0x11, 0x4b, 0xf2, 0x23, 0xfd, 0xf1, 0xcb, 0xa6, 0x03, 0x2a, 0x15, 0xf9,
  0x46, 0x02, 0x13, 0x16, 0xe4, 0xde, 0x0a, 0xfa, 0xc2, 0xe0, 0xf0, 0x02,
  0xfe, 0xe7, 0xdf, 0xe9, 0x1d, 0x30, 0xfb, 0xfc, 0xdd, 0xeb, 0xf2, 0xe6,
  0xfc, 0xd2, 0xfd, 0xec, 0xfa, 0xf6, 0xf3, 0xfb, 0xe8, 0xf9, 0x2a, 0x0f,
  0xcf, 0x12, 0x0a, 0xe5, 0x23, 0xc8, 0xad, 0x1e, 0x2b, 0x07, 0xd5, 0xe3,
  0x2e, 0x30, 0xcf, 0xde, 0x18, 0x10, 0xe9, 0x1f, 0x01, 0xe7, 0xf1, 0x2a,
  0x00, 0xc8, 0xbb, 0xcc, 0xb7, 0x0b, 0x14, 0x3d, 0x14, 0xef, 0x2b, 0x06,
  0xf9, 0x3f, 0x2d, 0xfc, 0xde, 0x39, 0x26, 0x1e, 0x0e, 0xd1, 0x40, 0x32,
  0x3b, 0x20, 0xff, 0xe1, 0x24, 0x41, 0x0d, 0x0f, 0x2f, 0x44, 0x30, 0x9c,
  0x4d, 0x30, 0xe5, 0x27, 0x08, 0x49, 0x24, 0xc9, 0x76, 0xc7, 0xf4, 0x3a,
  0x05, 0xdd, 0xf0, 0x22, 0xca, 0x75, 0xce, 0x08, 0x30, 0x25, 0x14, 0x32,
  0x16, 0x32, 0x14, 0x44, 0xf5, 0x88, 0x2c, 0x85, 0xd6, 0xde, 0x8a, 0x01,
  0xbe, 0x00, 0xf2, 0x52, 0xca, 0xf9, 0xc3, 0xc1, 0x2b, 0x75, 0xd6, 0xb5,
  0x44, 0xc6, 0xf7, 0xe7, 0xde, 0x52, 0xc2, 0xed, 0xce, 0xb3, 0xe7, 0xdd,
  0xfd, 0x3e, 0x10, 0x3c, 0x1b, 0x06, 0x59, 0x5c, 0x2f, 0xdb, 0xfd, 0x0d,
  0x98, 0x2d, 0x1b, 0xf2, 0xf8, 0xc9, 0x05, 0x3d, 0xdc, 0xab, 0x2b, 0x07,
  0x08, 0xc3, 0x2b, 0xbc, 0x28, 0x05, 0x39, 0xf9, 0x38, 0x5d, 0x03, 0xcb,
  0x59, 0x08, 0xf1, 0xc1, 0xd3, 0xe9, 0x08, 0xe3, 0x0e, 0xcb, 0xec, 0xe8,
  0xe2, 0x0c, 0xfa, 0xdd, 0xba, 0xe0, 0xbd, 0xdc, 0xd7, 0xd4, 0xeb, 0xf0,
  0xcc, 0xd9, 0xc5, 0xe7, 0xd1, 0xd7, 0xd1, 0x81, 0xf7, 0xd0, 0xc2, 0x20,
  0x2d, 0xe3, 0x23, 0x3a, 0xb3, 0x2a, 0x3a, 0x29, 0xee, 0xf0, 0xfa, 0xdf,
  0x17, 0xfe, 0x68, 0x26, 0xcc, 0xf9, 0x27, 0xeb, 0x1b, 0xe1, 0x34, 0x15,
  0x40, 0x74, 0xf6, 0x08, 0x47, 0x0d, 0x36, 0x09, 0xf6, 0x12, 0x21, 0xcc,
  0x15, 0xf4, 0xf6, 0xfd, 0x0c, 0x34, 0x1f, 0x24, 0xfe, 0xee, 0xbb, 0xec,
  0xde, 0xfb, 0x1f, 0xbd, 0xfe, 0x3c, 0x05, 0x14, 0xce, 0xc9, 0xf2, 0x2c,
  0xce, 0xf7, 0x1f, 0x04, 0x0a, 0x0f, 0x01, 0xe9, 0x10, 0x1e, 0x2b, 0x0f,
  0xfd, 0xe2, 0xfb, 0xf2, 0xc3, 0x11, 0xf1, 0xe5, 0xf0, 0xd5, 0x11, 0xf7,
  0x0d, 0xe6, 0x18, 0x0d, 0x17, 0x1d, 0xf0, 0xc5, 0x00, 0xe1, 0x8a, 0xe0,
  0x1f, 0x05, 0x1a, 0x01, 0xf2, 0xfc, 0xee, 0xe0, 0x19, 0x1f, 0x0f, 0x00,
  0x1b, 0xf8, 0x0d, 0x16, 0x16, 0x04, 0xe7, 0xf1, 0x1b, 0xef, 0xd0, 0xfb,
  0x25, 0x03, 0x06, 0x29, 0x0d, 0x15, 0x27, 0x0e, 0x15, 0xe1, 0xea, 0x10,
  0xfa, 0xfb, 0xff, 0xf7, 0xec, 0xef, 0x01, 0x05, 0xfd, 0xe5, 0x08, 0x06,
  0x28, 0x11, 0x0b, 0xfe, 0x04, 0x12, 0xf0, 0xf0, 0x27, 0xc8, 0x27, 0x09,
  0x01, 0x0a, 0xda, 0xda, 0x12, 0xf1, 0xfa, 0x20, 0x14, 0x0c, 0x0d, 0xf9,
  0x18, 0x05, 0x0a, 0x15, 0x10, 0xfd, 0x2c, 0x14, 0x06, 0x16, 0x09, 0xf8,
  0x02, 0x10, 0x1b, 0x13, 0x1a, 0x46, 0x13, 0x31, 0x45, 0x1b, 0xf6, 0x03,
  0x1b, 0x07, 0xff, 0x17, 0xf9, 0x2b, 0xf9, 0x05, 0x10, 0xf4, 0x17, 0x0a,
  0x20, 0xfa, 0x0d, 0x06, 0xf8, 0xdc, 0x05, 0xe8, 0x1a, 0x0c, 0xf4, 0x15,
  0x1e, 0x25, 0x14, 0xf2, 0x23, 0x16, 0x0f, 0x1d, 0x23, 0x06, 0x07, 0x06,
  0x09, 0xec, 0xfb, 0x0d, 0xfe, 0xf0, 0xf7, 0x0f, 0xf3, 0xf8, 0x0a, 0x1a,
  0xdb, 0xd8, 0x18, 0xcb, 0x1d, 0x10, 0xfe, 0xfb, 0x13, 0x02, 0x0e, 0xd5,
  0x26, 0xe9, 0xf7, 0xfa, 0xe6, 0xf3, 0xf6, 0xe0, 0xf0, 0xf6, 0x05, 0xe8,
  0x06, 0x1d, 0x21, 0xef, 0xf2, 0xf5, 0xfe, 0xf8, 0xe1, 0xde, 0xf7, 0xee,
  0xea, 0x0a, 0xf0, 0x02, 0xe3, 0x33, 0xe6, 0x16, 0x13, 0xe4, 0xff, 0x0f,
  0xe3, 0x2d, 0x11, 0xcd, 0xd4, 0xef, 0xd3, 0x25, 0x00, 0x1c, 0x0e, 0xe7,
  0x0a, 0x29, 0xf3, 0x03, 0xd0, 0xb2, 0x19, 0xc0, 0xfe, 0xf9, 0xee, 0x06,
  0xe9, 0x29, 0xac, 0x1d, 0x07, 0xe1, 0x23, 0x26, 0xd7, 0xd6, 0xd6, 0xd8,
  0x81, 0xfb, 0xf2, 0xdf, 0xed, 0x0b, 0x05, 0x15, 0x0f, 0xda, 0xcd, 0xcf,
  0xde, 0xd3, 0xf1, 0x17, 0xe7, 0xce, 0xc8, 0xaa, 0xc7, 0xea, 0xca, 0x36,
  0xf3, 0xf8, 0x17, 0xeb, 0xf2, 0xc1, 0xd1, 0x36, 0xd9, 0x1d, 0xd9, 0xbd,
  0x0a, 0x06, 0xf0, 0xfb, 0x29, 0xd2, 0x16, 0x1d, 0x18, 0x28, 0xe9, 0x1e,
  0xf6, 0xff, 0xe1, 0xc8, 0x10, 0xd9, 0x33, 0x34, 0xd9, 0x25, 0x1d, 0xe8,
  0x01, 0x03, 0xec, 0xfd, 0xab, 0x03, 0xfd, 0x38, 0xf9, 0xe3, 0xf1, 0xe3,
  0xe7, 0x25, 0x28, 0xea, 0xc9, 0xfa, 0xf8, 0xe6, 0x04, 0xbe, 0x44, 0x12,
  0x21, 0x14, 0xf0, 0x0f, 0xf6, 0xea, 0x15, 0x02, 0xd2, 0x2a, 0x52, 0xdd,
  0x21, 0x04, 0xe7, 0x05, 0x1a, 0x35, 0x22, 0x03, 0x0b, 0x32, 0xd0, 0x21,
  0xf1, 0xb4, 0x24, 0x81, 0xed, 0x40, 0xd1, 0x17, 0xe6, 0x20, 0xd5, 0xa5,
  0xd7, 0xf5, 0x32, 0x62, 0x10, 0x17, 0x1a, 0xdd, 0x12, 0xf3, 0x40, 0xe2,
  0xfb, 0x02, 0x3b, 0x3b, 0xfd, 0x13, 0x01, 0x24, 0x16, 0x26, 0x13, 0x2b,
  0x1a, 0x0b, 0xe5, 0xed, 0x02, 0x0a, 0x0e, 0xac, 0x2b, 0x00, 0xf7, 0x35,
  0xef, 0x05, 0x19, 0xfb, 0x30, 0x0b, 0x30, 0xfb, 0xf0, 0xf6, 0x02, 0x01,
  0xe1, 0xe1, 0xe6, 0x0d, 0x37, 0x2e, 0xfa, 0x46, 0xfb, 0x0c, 0xdf, 0xf4,
  0x0b, 0x10, 0x08, 0xee, 0x11, 0x03, 0xac, 0xee, 0xd9, 0xd1, 0xf2, 0xff,
  0xcf, 0xed, 0x1d, 0xf8, 0xe6, 0xbf, 0xe4, 0x01, 0xdd, 0x0f, 0xf3, 0xd8,
  0xf8, 0x11, 0xc1, 0x17, 0xca, 0xe2, 0xd8, 0xe0, 0xdd, 0xf3, 0x00, 0x00,
  0xcd, 0xf3, 0x04, 0xff, 0xf3, 0x00, 0x15, 0x02, 0xd2, 0x12, 0xed, 0xf8,
  0x04, 0xf9, 0xf9, 0xf8, 0x34, 0xf5, 0xe7, 0x0e, 0xc7, 0xde, 0x03, 0xdc,
  0xeb, 0xf0, 0xf6, 0x0b, 0xdf, 0x1f, 0xe3, 0xe8, 0xf0, 0x10, 0x1f, 0x05,
  0x17, 0x23, 0x2d, 0x12, 0x17, 0x05, 0x05, 0x11, 0x18, 0x34, 0x11, 0x1f,
  0xe5, 0x0c, 0x1f, 0x1a, 0x0b, 0xf3, 0x23, 0xe0, 0x27, 0x38, 0x0b, 0x20,
  0x02, 0x06, 0x2a, 0xd0, 0x08, 0xee, 0xd2, 0xf3, 0xf2, 0xff, 0x18, 0x01,
  0x21, 0xf2, 0x01, 0xfc, 0x17, 0x0c, 0xeb, 0x10, 0xf4, 0xf8, 0xf7, 0x07,
  0x16, 0x08, 0x14, 0xf8, 0xf5, 0x29, 0xf9, 0x0b, 0xfc, 0xf9, 0x17, 0xd2,
  0xf1, 0xf1, 0xe0, 0x16, 0x26, 0x20, 0x09, 0x0d, 0xef, 0x07, 0x04, 0xf7,
  0x20, 0x10, 0xec, 0xf1, 0x0d, 0xf9, 0x14, 0x13, 0x13, 0xf4, 0x18, 0xf8,
  0x0a, 0xf1, 0x04, 0x16, 0x1e, 0x0b, 0xfe, 0x12, 0x05, 0x10, 0xff, 0xf9,
  0xd6, 0xfa, 0xfb, 0xeb, 0xec, 0x27, 0xf7, 0xed, 0xfe, 0xfe, 0x3e, 0xda,
  0x16, 0xfc, 0xfc, 0xdb, 0xeb, 0xb5, 0xd3, 0xaf, 0xd4, 0xe6, 0xbc, 0xff,
  0xf1, 0xfb, 0xce, 0xdb, 0xd9, 0x0e, 0x25, 0x39, 0xed, 0xdb, 0xea, 0x0d,
  0x0f, 0x22, 0xe6, 0xbf, 0x2e, 0xf6, 0x2a, 0x04, 0x0f, 0x06, 0xde, 0xf6,
  0xef, 0x0b, 0xe5, 0xd6, 0xd7, 0xf7, 0xad, 0xe0, 0xf4, 0xf0, 0x1b, 0xd9,
  0xfa, 0x03, 0xee, 0x27, 0x20, 0xe6, 0xe6, 0x29, 0x11, 0x18, 0xf4, 0xdf,
  0x1e, 0x12, 0xea, 0xf6, 0x2e, 0xd3, 0x0c, 0x10, 0xfc, 0xe9, 0xf8, 0xba,
  0xf0, 0x0a, 0x18, 0x1e, 0x12, 0x42, 0x27, 0xd6, 0xf9, 0x14, 0xe6, 0xfe,
  0xf3, 0x06, 0x22, 0x19, 0x78, 0x23, 0x12, 0x2d, 0x04, 0xdb, 0x03, 0xfe,
  0x20, 0x19, 0x17, 0x23, 0x27, 0x15, 0x19, 0x12, 0x00, 0x15, 0x31, 0x3b,
  0xfe, 0xf2, 0x1a, 0xe7, 0xe3, 0x26, 0x04, 0xef, 0x24, 0x20, 0xe9, 0xfd,
  0x7f, 0xcd, 0xdf, 0x2e, 0x0e, 0xfb, 0xea, 0xfb, 0x1b, 0x2b, 0x1e, 0x1b,
  0x07, 0x25, 0x19, 0x02, 0x36, 0x09, 0x28, 0x4a, 0xff, 0xd2, 0x1b, 0x00,
  0xeb, 0xed, 0xf0, 0xf9, 0x22, 0x0c, 0xe8, 0xfa, 0xb6, 0xea, 0xed, 0xf8,
  0xf0, 0x08, 0x11, 0xef, 0xe5, 0x29, 0x11, 0xe1, 0xd2, 0xd1, 0xff, 0xf8,
  0x14, 0xf2, 0x1d, 0x07, 0x21, 0x00, 0x0f, 0xf9, 0x25, 0xd9, 0xd9, 0x0b,
  0xdf, 0x24, 0xff, 0xc1, 0x38, 0xec, 0xe9, 0x21, 0xd3, 0x12, 0xf8, 0xec,
  0xd1, 0x2b, 0xbc, 0x1e, 0xfc, 0x01, 0x12, 0x3c, 0xec, 0x28, 0xf1, 0x18,
  0xee, 0xb8, 0xf3, 0x3e, 0xbc, 0xda, 0xd0, 0x12, 0x0f, 0x01, 0xed, 0x07,
  0x5e, 0xc4, 0xd0, 0xda, 0xf5, 0x15, 0xc5, 0xdc, 0xe4, 0xbf, 0xf2, 0x17,
  0x04, 0x22, 0x06, 0x34, 0xfc, 0x21, 0xf0, 0xfe, 0xe0, 0xee, 0x29, 0x1a,
  0xe9, 0xc5, 0xed, 0xf8, 0x1e, 0xfc, 0xe5, 0x1b, 0x16, 0xf7, 0x0a, 0xd3,
  0x2a, 0xe8, 0xff, 0xe2, 0xee, 0xc3, 0x12, 0xd7, 0x0c, 0xfa, 0xfe, 0x0b,
  0x0b, 0xe4, 0xfe, 0x28, 0xf5, 0x30, 0xf7, 0xe1, 0x39, 0x13, 0x2c, 0x08,
  0xed, 0xf5, 0x25, 0x14, 0x1c, 0x25, 0xea, 0x36, 0x02, 0x44, 0x1b, 0x00,
  0x19, 0x2f, 0x3c, 0xfa, 0x35, 0x30, 0xca, 0x1d, 0x2d, 0xea, 0x38, 0x13,
  0x2a, 0xea, 0x48, 0x38, 0xdf, 0x31, 0xa8, 0x1d, 0x28, 0x1b, 0xf9, 0x0d,
  0xee, 0xb0, 0xef, 0x3b, 0xdb, 0x1b, 0x11, 0xf4, 0xe5, 0x31, 0x05, 0x0e,
  0x09, 0x38, 0xfe, 0x51, 0x1d, 0x11, 0x52, 0x29, 0x0e, 0xa0, 0x13, 0x02,
  0xe5, 0x01, 0x82, 0xd3, 0x10, 0x4d, 0x35, 0xb7, 0x39, 0xae, 0xe6, 0x44,
  0xed, 0x1c, 0x21, 0xfc, 0xc1, 0x4a, 0x0a, 0x2b, 0xf4, 0x08, 0x2c, 0xf7,
  0x20, 0x4a, 0x12, 0x00, 0x0b, 0x0f, 0xe2, 0xe0, 0xff, 0xcd, 0xf6, 0x27,
  0x11, 0x05, 0x2a, 0xc1, 0x65, 0xf0, 0xe3, 0x39, 0xfb, 0xe0, 0xf0, 0x19,
  0xd9, 0x31, 0xdb, 0xde, 0x20, 0xce, 0x03, 0x00, 0xed, 0x13, 0x34, 0x52,
  0xd0, 0x9a, 0xca, 0xe9, 0xb2, 0xc7, 0xc8, 0x0a, 0xca, 0x08, 0x07, 0xeb,
  0x15, 0xd4, 0x02, 0xde, 0xe7, 0x4a, 0xf9, 0x11, 0xef, 0xfe, 0xc5, 0xf4,
  0x22, 0x27, 0xeb, 0x44, 0xc6, 0x0f, 0xd6, 0xe1, 0xd8, 0xd8, 0xfe, 0xbb,
  0xd1, 0xe0, 0xc1, 0x46, 0x24, 0xf1, 0xe4, 0x38, 0x6d, 0xf0, 0xed, 0xdd,
  0x0b, 0x15, 0xd1, 0xde, 0xfb, 0xae, 0xda, 0x14, 0x1f, 0x26, 0x09, 0x14,
  0x08, 0x13, 0xd7, 0x07, 0xf0, 0xab, 0x32, 0x39, 0xe0, 0x12, 0x0a, 0xdd,
  0x1b, 0xb9, 0xea, 0x7d, 0xd6, 0x00, 0xd7, 0x98, 0xf0, 0x51, 0xe1, 0xfe,
  0x36, 0xa0, 0x39, 0x08, 0x1d, 0x5a, 0xf5, 0x21, 0xeb, 0xd5, 0x1f, 0xd0,
  0x11, 0xf7, 0xfe, 0x7f, 0x29, 0x15, 0x2d, 0xdc, 0x18, 0xfb, 0xe2, 0x1b,
  0x3c, 0xe5, 0xea, 0xfe, 0x0f, 0xd1, 0x1b, 0x06, 0xe7, 0xbf, 0x69, 0x44,
  0x17, 0x0c, 0x49, 0xf2, 0x24, 0x31, 0x37, 0xff, 0x50, 0x12, 0x2e, 0x22,
  0x14, 0xfb, 0xe1, 0xa7, 0x26, 0x26, 0xf1, 0xdc, 0x29, 0xc7, 0xfe, 0x35,
  0x02, 0x14, 0x27, 0xfc, 0xe4, 0xfa, 0x0a, 0xde, 0xf2, 0xeb, 0xf5, 0xae,
  0xf7, 0x09, 0x38, 0xf8, 0x21, 0xc6, 0xd6, 0xd2, 0x0e, 0xe6, 0x03, 0xf1,
  0x35, 0x07, 0x04, 0x2c, 0xd3, 0x0a, 0x33, 0x32, 0xf4, 0x02, 0x13, 0x31,
  0x26, 0x2f, 0x22, 0x04, 0xf0, 0xfc, 0x34, 0xea, 0x25, 0x16, 0x33, 0x13,
  0x21, 0x2d, 0x17, 0x33, 0x31, 0x0d, 0x24, 0x05, 0xd7, 0xfa, 0xd5, 0xf7,
  0xca, 0xe4, 0xc5, 0xdd, 0x16, 0x2e, 0xe3, 0xfa, 0x13, 0xe4, 0xec, 0xe2,
  0xe0, 0xe8, 0x1b, 0xfe, 0xec, 0xf9, 0xbf, 0xf5, 0xdc, 0xfc, 0xea, 0x0a,
  0xda, 0xdb, 0x22, 0x0a, 0x22, 0xe8, 0xf0, 0x14, 0xd1, 0x16, 0x17, 0xd4,
  0x01, 0xf7, 0xf9, 0x00, 0x19, 0xc1, 0x30, 0x06, 0xee, 0xe6, 0x1a, 0xed,
  0x00, 0xef, 0xfc, 0xee, 0x27, 0x5a, 0xfb, 0x07, 0x3b, 0x09, 0x25, 0xfb,
  0xeb, 0xef, 0xd9, 0xd9, 0x8c, 0xd6, 0xf7, 0xec, 0xeb, 0x0f, 0xd1, 0x07,
  0xfc, 0xce, 0xea, 0xc5, 0xbb, 0xbd, 0x1c, 0xc9, 0xf7, 0xe7, 0xdf, 0xc3,
  0xd8, 0x04, 0xd7, 0x35, 0x1c, 0xd3, 0x20, 0xe8, 0x12, 0xc2, 0xbb, 0x44,
  0x81, 0x1a, 0xd2, 0xa7, 0x16, 0x0d, 0xd2, 0xc3, 0x15, 0xa4, 0x15, 0xe4,
  0xdf, 0xf7, 0xea, 0xc8, 0xf3, 0xd2, 0xdc, 0xda, 0xf6, 0x29, 0x17, 0x38,
  0x0c, 0x20, 0x34, 0xf3, 0x11, 0x0e, 0xfe, 0x02, 0x07, 0x1b, 0x17, 0x00,
  0x0d, 0xfc, 0x15, 0x14, 0xf9, 0xde, 0x30, 0x14, 0x0e, 0xf8, 0x15, 0xfb,
  0x23, 0x07, 0x2b, 0x25, 0x21, 0x36, 0x24, 0x1f, 0x13, 0x16, 0x13, 0xc9,
  0xdb, 0xe6, 0xee, 0x29, 0x88, 0xf8, 0xd5, 0xd3, 0x1c, 0x1f, 0xe1, 0xd4,
  0x1f, 0xc1, 0x04, 0xfb, 0xfe, 0xfb, 0xd1, 0xff, 0xd6, 0xd8, 0xe6, 0xe1,
  0xea, 0x31, 0xdb, 0x57, 0xe4, 0xfd, 0x5f, 0x07, 0x0c, 0xea, 0xd7, 0x1c,
  0xb6, 0x2d, 0x39, 0xf3, 0xff, 0xf9, 0x1a, 0x00, 0xef, 0xc6, 0x44, 0x08,
  0xed, 0x0c, 0x19, 0xda, 0x0e, 0x0b, 0x10, 0xe4, 0x37, 0x1f, 0x15, 0xf1,
  0x14, 0x03, 0xfa, 0xc7, 0xfd, 0x1b, 0x09, 0xf1, 0x32, 0xf5, 0xff, 0xfd,
  0x02, 0x17, 0x36, 0x16, 0xe7, 0xf8, 0x13, 0x11, 0xf0, 0xfe, 0x07, 0xe2,
  0x0a, 0x12, 0xfe, 0xfa, 0x13, 0x01, 0xf8, 0xc5, 0xf7, 0xeb, 0xce, 0xde,
  0xef, 0x0d, 0x1c, 0xda, 0xe0, 0x1c, 0x0a, 0x11, 0x21, 0xe1, 0x28, 0x20,
  0xdc, 0x37, 0xe5, 0x15, 0xf2, 0x28, 0x15, 0x12, 0x13, 0xf7, 0xe6, 0x0e,
  0xf9, 0x01, 0xe7, 0x30, 0xfe, 0xe2, 0xee, 0x0a, 0x00, 0xf6, 0x07, 0x09,
  0xe1, 0x14, 0xa1, 0x0d, 0x28, 0x0e, 0x1c, 0xd9, 0x18, 0x09, 0x22, 0x20,
  0xfb, 0x0c, 0xfa, 0xf7, 0x2b, 0x01, 0x33, 0xfe, 0x1e, 0xf5, 0xe2, 0x0c,
  0xf1, 0xfb, 0x0b, 0x14, 0x15, 0xfa, 0x1b, 0x0a, 0xdf, 0xe4, 0xcc, 0x0d,
  0x03, 0x2f, 0xde, 0x0e, 0xd2, 0x18, 0xc7, 0x16, 0x18, 0x00, 0xf1, 0x3f,
  0x17, 0x29, 0xc2, 0x02, 0xd4, 0xb2, 0xda, 0x19, 0xdf, 0xcb, 0xe6, 0x29,
  0xf0, 0x05, 0xea, 0xf7, 0xa6, 0xe8, 0xe9, 0x02, 0xfa, 0x28, 0xc9, 0xe2,
  0xf1, 0x05, 0xfb, 0xdf, 0xcc, 0xff, 0xe6, 0xd6, 0xdc, 0xd3, 0xf9, 0xce,
  0xed, 0x61, 0x1d, 0x3e, 0x0f, 0xf0, 0x43, 0x1c, 0xd0, 0x14, 0xef, 0xc7,
  0xa5, 0xe5, 0xf9, 0xd5, 0xfd, 0x2d, 0xf9, 0xde, 0x19, 0xd3, 0xc8, 0x05,
  0xf5, 0x97, 0xd7, 0xde, 0xed, 0xf2, 0xb9, 0xe0, 0xd6, 0xd8, 0xcd, 0x0b,
  0xb5, 0x16, 0x21, 0x05, 0x31, 0xcc, 0xa0, 0x33, 0x00, 0x11, 0x14, 0x89,
  0x14, 0x04, 0x3b, 0x10, 0x25, 0xa0, 0xfa, 0xd8, 0x08, 0xfb, 0xad, 0xd0,
  0xf9, 0x0d, 0xd9, 0xd5, 0x20, 0x06, 0x3f, 0x35, 0x26, 0x20, 0x33, 0x14,
  0xd4, 0xab, 0x0a, 0xb0, 0x8e, 0xe9, 0xec, 0xc2, 0x00, 0x28, 0xf1, 0xd4,
  0x21, 0xfb, 0xc8, 0xc3, 0xb6, 0x9e, 0xec, 0xdc, 0x10, 0xf9, 0xf6, 0xa2,
  0xcf, 0x42, 0x81, 0x62, 0x41, 0xfe, 0x70, 0xfc, 0xef, 0xed, 0xd4, 0x46,
  0x8f, 0xe5, 0xed, 0x09, 0x36, 0x32, 0xb7, 0xee, 0x2b, 0x0f, 0x0e, 0xfd,
  0x14, 0x22, 0xef, 0x18, 0xed, 0xd0, 0x2b, 0xd7, 0x22, 0x1b, 0x47, 0x36,
  0x12, 0x10, 0x44, 0x35, 0xf7, 0x3c, 0x19, 0xe1, 0x1b, 0x3c, 0x09, 0x2c,
  0xd1, 0xc1, 0x45, 0x30, 0xf2, 0x23, 0x11, 0x16, 0x08, 0xbe, 0x13, 0xb1,
  0x12, 0x3e, 0x09, 0x2f, 0x1f, 0xb0, 0xd3, 0xbf, 0x17, 0x30, 0xf1, 0x07,
  0xda, 0x0a, 0x08, 0x13, 0xc8, 0xe4, 0x9c, 0xd1, 0x1b, 0x32, 0xf9, 0xc3,
  0x30, 0x07, 0xf2, 0xec, 0xd9, 0xe9, 0xcd, 0xe1, 0xdd, 0xfc, 0xcf, 0xf2,
  0xfe, 0xef, 0xe8, 0x17, 0xcd, 0xf9, 0x36, 0x3f, 0x0a, 0xe1, 0xf7, 0x1d,
  0xe5, 0x19, 0x45, 0xfc, 0xf9, 0x1d, 0x00, 0x16, 0xfa, 0xc9, 0x37, 0x15,
  0xe9, 0xd2, 0x0a, 0xcd, 0x12, 0xfb, 0x14, 0xdd, 0x13, 0x4e, 0x2a, 0x1c,
  0x49, 0xfe, 0x13, 0xf9, 0x01, 0xe8, 0x05, 0xc7, 0x2a, 0xb0, 0xf1, 0xe0,
  0xf1, 0x18, 0xec, 0x02, 0xd3, 0x02, 0xe0, 0xed, 0xd8, 0x07, 0xf8, 0x01,
  0x04, 0x0e, 0x00, 0x04, 0xe1, 0x0d, 0xe7, 0x0f, 0xe0, 0xc6, 0xe6, 0xe4,
  0xd1, 0x00, 0xf6, 0x1e, 0xb7, 0xfd, 0xd6, 0xe4, 0x2e, 0x0d, 0xef, 0xc6,
  0x47, 0xfa, 0xff, 0xef, 0xda, 0x0c, 0xc4, 0xe8, 0xea, 0xdd, 0xe4, 0xf7,
  0x0b, 0x30, 0xf9, 0x24, 0x06, 0x1c, 0x7f, 0x27, 0x01, 0xe8, 0x00, 0xef,
  0xd1, 0x37, 0x57, 0xc4, 0x04, 0x0c, 0x45, 0x51, 0xf6, 0xe2, 0x0d, 0xfa,
  0x11, 0xff, 0x17, 0xe1, 0x1c, 0x0a, 0xe6, 0xd7, 0x26, 0x6c, 0x14, 0xf4,
  0x42, 0xfb, 0x01, 0x11, 0xd6, 0xed, 0xf0, 0xfc, 0xfb, 0x04, 0xf6, 0xeb,
  0xeb, 0xe4, 0xfa, 0xe3, 0x18, 0xf3, 0xe8, 0xde, 0x00, 0x0c, 0xce, 0x06,
  0xe0, 0xb8, 0xf3, 0xd9, 0xdd, 0x27, 0x06, 0x08, 0xcd, 0xf8, 0x0b, 0xe6,
  0xfd, 0xed, 0xff, 0x0c, 0xd3, 0xf2, 0xe9, 0xf4, 0xfb, 0xd7, 0xd9, 0xea,
  0x01, 0xe9, 0xf3, 0x0b, 0x05, 0x02, 0xeb, 0xfb, 0xf3, 0xfe, 0xd6, 0xe0,
  0xf6, 0xfa, 0x08, 0xbe, 0xfe, 0xfe, 0x2f, 0xe5, 0xfb, 0x26, 0x2b, 0x09,
  0x40, 0x0f, 0x17, 0x0b, 0x03, 0x07, 0x22, 0x1f, 0x01, 0x14, 0x0a, 0x02,
  0xfc, 0xf2, 0x00, 0xc4, 0x02, 0x3d, 0x05, 0x04, 0xf9, 0x25, 0xfe, 0x94,
  0xe4, 0xfd, 0x0c, 0x1a, 0x14, 0x1d, 0xf3, 0x1b, 0x23, 0x0d, 0xd1, 0x1a,
  0x00, 0xef, 0xd3, 0xf5, 0x10, 0x07, 0x16, 0x07, 0x07, 0x1a, 0x0a, 0xe5,
  0xfd, 0xf5, 0x28, 0x0c, 0x09, 0x1b, 0x20, 0xb6, 0xfe, 0xfa, 0x04, 0xf9,
  0xe6, 0x04, 0x08, 0xf7, 0x03, 0x14, 0xe6, 0x01, 0x33, 0xf8, 0x03, 0xd7,
  0x2b, 0x0d, 0xf3, 0x00, 0xeb, 0xe2, 0xe8, 0xdd, 0xea, 0xeb, 0xe8, 0x1c,
  0xfd, 0x36, 0xf8, 0xdd, 0xfa, 0x0e, 0x3c, 0x1f, 0x06, 0xe6, 0xfd, 0xdd,
  0xee, 0x17, 0x45, 0xeb, 0x16, 0xef, 0x46, 0x3e, 0xf0, 0xdc, 0xf0, 0x0d,
  0x10, 0xee, 0x0a, 0xfa, 0xf3, 0x14, 0xe2, 0xda, 0x11, 0x45, 0x21, 0xd6,
  0x39, 0x04, 0xe0, 0xff, 0xed, 0xea, 0x10, 0xff, 0x11, 0x16, 0xd9, 0x15,
  0xfe, 0x03, 0xf2, 0xe0, 0x13, 0x28, 0x05, 0x0d, 0xec, 0x05, 0x02, 0xe0,
  0xe9, 0xf8, 0xf1, 0x00, 0x05, 0x1c, 0xff, 0x11, 0xef, 0x07, 0x3d, 0x01,
  0xc3, 0xf8, 0xf6, 0x0b, 0x81, 0xe6, 0xef, 0x00, 0x26, 0xdc, 0xd3, 0xcc,
  0x16, 0x1b, 0xc1, 0xd3, 0xdd, 0xfa, 0xe3, 0x04, 0xe1, 0xc7, 0xe1, 0xdf,
  0xe8, 0xe2, 0xe8, 0x17, 0xd8, 0xf5, 0x29, 0x16, 0xff, 0xe2, 0x02, 0xf8,
  0xda, 0x2f, 0x0d, 0xf6, 0xfd, 0xec, 0x26, 0x0c, 0x0d, 0xe0, 0x10, 0x06,
  0x07, 0xf8, 0x12, 0xed, 0x0a, 0x0f, 0xf6, 0xe2, 0xfe, 0x26, 0x24, 0xf7,
  0x03, 0x19, 0xfb, 0x07, 0x00, 0xfa, 0xe9, 0x08, 0x08, 0xec, 0xf7, 0x06,
  0xf2, 0xeb, 0xe9, 0x09, 0xec, 0x09, 0x01, 0x02, 0xfc, 0x0c, 0xf2, 0xff,
  0xf3, 0xf3, 0x12, 0xff, 0xf7, 0x07, 0x0d, 0xdb, 0xfb, 0xe3, 0xf9, 0xe4,
  0x06, 0xfe, 0xe1, 0x09, 0xf7, 0xfe, 0xf8, 0xf5, 0x08, 0xfb, 0xfe, 0xe8,
  0x11, 0xe6, 0x0d, 0xf8, 0xef, 0x0f, 0xfb, 0x1a, 0xfe, 0xf7, 0xfb, 0xf1,
  0x00, 0x00, 0x10, 0xfd, 0xfb, 0x16, 0x2b, 0xd9, 0x09, 0x09, 0xf4, 0xf2,
  0x0d, 0x21, 0x13, 0xfa, 0x0b, 0xe1, 0x15, 0x1b, 0xf5, 0xfc, 0x09, 0x03,
  0x06, 0xda, 0x0f, 0xe3, 0x17, 0x15, 0xfd, 0x0f, 0x0f, 0x12, 0xe7, 0xe2,
  0x0e, 0x1d, 0x07, 0xe3, 0xfc, 0xf5, 0xf2, 0x08, 0x19, 0x0f, 0x24, 0x08,
  0x07, 0xee, 0x0b, 0xf4, 0x08, 0xe6, 0x0f, 0xfa, 0x15, 0xf6, 0xf8, 0x03,
  0x02, 0x07, 0xe5, 0xed, 0xf7, 0x14, 0x0c, 0xd2, 0x18, 0x02, 0xf1, 0xed,
  0x2a, 0x0c, 0x1a, 0x14, 0x1d, 0x04, 0xe4, 0x1a, 0x0e, 0x1c, 0x0f, 0x08,
  0xf6, 0x17, 0x33, 0x0c, 0x10, 0xfe, 0xef, 0x04, 0x11, 0xf3, 0x60, 0x21,
  0x07, 0xee, 0x19, 0xee, 0xe4, 0x0e, 0xf5, 0xff, 0x16, 0x33, 0x26, 0xe1,
  0xd2, 0xef, 0x25, 0x34, 0xfa, 0x41, 0x12, 0x28, 0xfe, 0xe8, 0xf3, 0x0f,
  0x1e, 0x01, 0x21, 0x18, 0x0a, 0x20, 0x02, 0x16, 0x06, 0x00, 0xdb, 0xeb,
  0x09, 0xf3, 0xc5, 0xfe, 0x17, 0x03, 0x07, 0xde, 0x1b, 0xd8, 0xe3, 0x02,
  0x12, 0xe6, 0xe8, 0xf9, 0xfb, 0xcd, 0x08, 0x28, 0xfd, 0x0d, 0xff, 0x0a,
  0xf8, 0x0a, 0xfb, 0x08, 0x07, 0x16, 0xe3, 0x15, 0xf8, 0xd8, 0x08, 0xc0,
  0xe8, 0x07, 0xf2, 0xcb, 0xf4, 0xdd, 0x0a, 0x28, 0xd6, 0xdb, 0xf5, 0xf0,
  0xd4, 0x03, 0xca, 0xf0, 0xe4, 0xc5, 0x0c, 0x26, 0xf8, 0xee, 0x10, 0xf0,
  0xf3, 0xb5, 0xc7, 0x10, 0xda, 0xd4, 0xeb, 0x15, 0xd2, 0xf1, 0x14, 0x17,
  0xd0, 0x23, 0x26, 0xd0, 0xd5, 0x03, 0xf4, 0x0e, 0x18, 0xf2, 0xe8, 0xf1,
  0x0c, 0xe3, 0xc7, 0x17, 0xd6, 0xd4, 0xce, 0xc1, 0xf1, 0xb7, 0xed, 0xe5,
  0xc5, 0x09, 0x0e, 0x21, 0xd6, 0xe3, 0x03, 0xfb, 0xdd, 0x18, 0x26, 0xc5,
  0xd0, 0xe0, 0xea, 0x2b, 0x0a, 0xf3, 0xe0, 0xff, 0x16, 0xdd, 0xdf, 0x0e,
  0xde, 0xfc, 0xd5, 0xe7, 0x0e, 0xd3, 0x00, 0xbd, 0xf7, 0x08, 0xcc, 0xf7,
  0x27, 0x07, 0xd0, 0x2f, 0x24, 0xfb, 0xf9, 0xf0, 0x22, 0x05, 0xd9, 0xec,
  0x25, 0xc7, 0xf7, 0xf1, 0x35, 0x28, 0x09, 0x16, 0x04, 0x15, 0x00, 0x0f,
  0x0d, 0xeb, 0x1a, 0x46, 0x09, 0xf6, 0x28, 0xea, 0x16, 0x0e, 0xe9, 0x1c,
  0x52, 0x05, 0x10, 0xf8, 0x06, 0xfd, 0x0f, 0xf1, 0x1e, 0xf5, 0x31, 0x27,
  0x29, 0x03, 0x29, 0x07, 0x22, 0x2e, 0x1e, 0x31, 0x38, 0xda, 0xf5, 0xa3,
  0x15, 0x2d, 0xc7, 0xf5, 0x1d, 0x10, 0x20, 0xf9, 0x3b, 0xf8, 0x07, 0x0e,
  0x0b, 0xe1, 0x11, 0x36, 0xc8, 0xda, 0x1e, 0xfb, 0x28, 0xd7, 0x0b, 0xc3,
  0x1e, 0x12, 0x17, 0x41, 0xfa, 0xe0, 0x02, 0xa1, 0xec, 0xf1, 0x81, 0xfc,
  0x2c, 0x0b, 0xeb, 0x36, 0xfd, 0x29, 0x1c, 0x1c, 0xfe, 0x10, 0x15, 0x06,
  0x19, 0x02, 0x47, 0x0c, 0xe4, 0x36, 0x26, 0x0b, 0x23, 0xf4, 0x2f, 0x1c,
  0x08, 0x43, 0x1b, 0x24, 0x1e, 0x20, 0x14, 0xdc, 0xe0, 0x2a, 0xee, 0xd7,
  0x0b, 0xad, 0xfd, 0x03, 0x28, 0x15, 0xca, 0xe6, 0x0b, 0xf7, 0xd9, 0xf0,
  0x0f, 0xe8, 0x29, 0x39, 0xf0, 0xf0, 0xdd, 0x13, 0xcc, 0xa3, 0xd2, 0x05,
  0xe2, 0xd4, 0xe9, 0x0b, 0xee, 0xc6, 0xf9, 0x06, 0x81, 0x05, 0x1d, 0xbf,
  0x0c, 0xff, 0xf8, 0xe7, 0x01, 0xdc, 0x1b, 0xe5, 0x03, 0xd1, 0xf4, 0xf5,
  0xe7, 0xd8, 0xbf, 0xbd, 0x13, 0x42, 0xde, 0xdc, 0x35, 0x1e, 0x0e, 0xf3,
  0xd9, 0xed, 0xdd, 0xcc, 0xe4, 0xe9, 0x13, 0xdf, 0xe0, 0xfb, 0x1e, 0xf4,
  0xef, 0xcc, 0xec, 0xfa, 0xd4, 0xc1, 0x09, 0xdb, 0x06, 0x0a, 0xda, 0xd4,
  0xf1, 0xe8, 0xe1, 0xf7, 0xeb, 0xf2, 0xd9, 0xd5, 0x24, 0xda, 0xfd, 0x3e,
  0xba, 0x16, 0xff, 0xb1, 0x1e, 0x23, 0xeb, 0xf2, 0x37, 0xaa, 0x3e, 0x10,
  0x19, 0x2a, 0xbc, 0xef, 0x08, 0xf5, 0x08, 0xf1, 0x13, 0x6c, 0xf3, 0xed,
  0x2d, 0x32, 0x37, 0x07, 0x18, 0xf9, 0xe8, 0xfe, 0xf8, 0xfc, 0x37, 0x0f,
  0xe8, 0xd8, 0xd5, 0x24, 0xf0, 0xf8, 0x1e, 0x12, 0x04, 0xf4, 0x31, 0xed,
  0x34, 0x01, 0x3e, 0x10, 0xf9, 0x28, 0x19, 0xfb, 0x40, 0x10, 0xd2, 0xcf,
  0x18, 0x01, 0x1d, 0x16, 0x1f, 0xff, 0xdf, 0x0f, 0x1c, 0xf0, 0xf0, 0xd1,
  0x12, 0xef, 0x0e, 0x05, 0x1b, 0x06, 0xfb, 0x11, 0x1d, 0x11, 0x23, 0x23,
  0x1b, 0xf4, 0x2e, 0xf4, 0xde, 0xf7, 0x10, 0xf7, 0x11, 0x2b, 0x01, 0x11,
  0x17, 0x1e, 0x1f, 0x2c, 0xf9, 0xe9, 0x16, 0x0b, 0xf2, 0xec, 0x40, 0x0d,
  0xf3, 0xf8, 0x28, 0xae, 0x13, 0x08, 0x3b, 0x32, 0x33, 0x4b, 0xe0, 0x02,
  0x28, 0x1f, 0xf2, 0xce, 0xfa, 0x07, 0xe7, 0xc3, 0x27, 0xde, 0x0e, 0x00,
  0xdb, 0xec, 0xf2, 0x1e, 0xbd, 0xd5, 0xeb, 0xe9, 0x01, 0xf9, 0xfa, 0x01,
  0xfb, 0xf4, 0xda, 0xfe, 0xe9, 0xe4, 0xfc, 0x3f, 0xd7, 0xe1, 0xc2, 0xb7,
  0xe4, 0xd3, 0xc4, 0x03, 0x85, 0x05, 0xee, 0xcd, 0x05, 0xf8, 0xcf, 0xe5,
  0x00, 0x3c, 0x1d, 0xbb, 0x11, 0x14, 0xac, 0x01, 0xd4, 0xa3, 0xe0, 0xd3,
  0x0c, 0x6b, 0xfe, 0x20, 0x33, 0xe2, 0x27, 0x21, 0xe9, 0x08, 0x18, 0xbd,
  0x8b, 0x01, 0xff, 0x01, 0x0d, 0x1c, 0xde, 0xfd, 0xda, 0x68, 0xfc, 0xed,
  0xd1, 0xc9, 0x13, 0xc6, 0xdd, 0xf3, 0x18, 0xeb, 0xf8, 0x3e, 0xf2, 0x1e,
  0x11, 0xec, 0x1c, 0x24, 0xec, 0x1f, 0x0a, 0xab, 0x21, 0xf4, 0x0e, 0xef,
  0xf4, 0xee, 0xfb, 0x13, 0xce, 0x2f, 0xcb, 0x0c, 0xf6, 0xf1, 0xf0, 0xdf,
  0xda, 0x13, 0x10, 0x05, 0xc7, 0xf4, 0xf5, 0x21, 0x04, 0xda, 0xf6, 0xdf,
  0xf7, 0xf1, 0xc4, 0x10, 0x8f, 0x02, 0x28, 0x0c, 0x40, 0x07, 0xf7, 0x1a,
  0xec, 0xd6, 0xf8, 0xdc, 0xf9, 0x15, 0xfd, 0xcb, 0x01, 0xec, 0x01, 0xc5,
  0x0e, 0x47, 0x11, 0x29, 0x2f, 0xf4, 0x31, 0xb5, 0xfc, 0xc6, 0xb2, 0xea,
  0x22, 0x10, 0x1a, 0xaa, 0xe6, 0xd7, 0xf1, 0xf5, 0x28, 0xb1, 0xe2, 0xcd,
  0x12, 0xd8, 0xc6, 0x4f, 0xed, 0xf8, 0xb5, 0x9c, 0x0a, 0x2c, 0xd0, 0x73,
  0x15, 0x1d, 0x36, 0xc4, 0xe5, 0x96, 0xf5, 0x25, 0xf0, 0x16, 0x26, 0xb6,
  0xd1, 0xcf, 0x06, 0x24, 0x00, 0x04, 0x07, 0xd2, 0x0e, 0xdf, 0xe6, 0x5f,
  0xff, 0xed, 0xb2, 0xe2, 0x24, 0xc6, 0xd0, 0x2e, 0xcf, 0x16, 0xf3, 0x01,
  0x0c, 0x1f, 0x11, 0x19, 0x65, 0x06, 0x13, 0x4c, 0x39, 0xf3, 0x02, 0x17,
  0xf7, 0x47, 0xf1, 0xf6, 0x15, 0xde, 0x32, 0xba, 0xef, 0x19, 0x19, 0x4e,
  0xee, 0x06, 0xf3, 0xcb, 0xeb, 0xe7, 0xf3, 0x2e, 0x16, 0x33, 0x13, 0x14,
  0x4c, 0xec, 0xda, 0x29, 0xea, 0xc9, 0xfe, 0xf1, 0xdd, 0xe9, 0x1e, 0x09,
  0x1f, 0xdc, 0x28, 0xc0, 0x3d, 0x47, 0x38, 0x44, 0x01, 0x09, 0xf2, 0xae,
  0xe9, 0x29, 0xc8, 0xfa, 0x47, 0x58, 0x2c, 0xf1, 0x7f, 0xea, 0xb2, 0x4c,
  0x1f, 0x34, 0x0e, 0xed, 0xec, 0x40, 0x40, 0x39, 0x24, 0xd7, 0x56, 0xae,
  0x21, 0x54, 0x65, 0x4d, 0x2d, 0xe6, 0x08, 0x9d, 0xe0, 0xdf, 0xcb, 0x27,
  0xff, 0xf7, 0x11, 0xef, 0xc2, 0xbf, 0xad, 0xfe, 0x1e, 0x45, 0xca, 0xdc,
  0x11, 0x2b, 0xd4, 0xfa, 0xcd, 0xa8, 0x00, 0x99, 0xf6, 0x09, 0xf0, 0xea,
  0xe0, 0x14, 0x04, 0xea, 0xf0, 0xee, 0x53, 0x3d, 0x1b, 0xf8, 0xf6, 0x10,
  0xe1, 0x26, 0x17, 0xba, 0xf5, 0x08, 0x13, 0x0a, 0xe9, 0x8a, 0x3d, 0x0d,
  0xda, 0x02, 0x31, 0xa1, 0x11, 0x1c, 0xee, 0xcb, 0x0a, 0x7a, 0x25, 0xce,
  0x4e, 0x00, 0x1a, 0x08, 0xf4, 0xec, 0xe5, 0x17, 0x05, 0xde, 0xda, 0xfb,
  0x13, 0x25, 0xd2, 0xe0, 0xfa, 0x02, 0x09, 0xce, 0xd2, 0x11, 0x07, 0xd9,
  0xed, 0xed, 0x1d, 0xd9, 0xcb, 0x37, 0x0b, 0x37, 0xed, 0xd6, 0x20, 0x0d,
  0xd9, 0xdf, 0xcb, 0x2f, 0x87, 0xf5, 0x2d, 0xcf, 0x28, 0xb2, 0xc0, 0xe9,
  0x28, 0xd0, 0xfe, 0xe4, 0xf3, 0x29, 0xd8, 0xf7, 0xec, 0x8a, 0xc0, 0xcf,
  0x0b, 0x25, 0x03, 0x1c, 0x3d, 0x0b, 0x44, 0xd7, 0x07, 0xb9, 0xad, 0x0d,
  0x8d, 0x13, 0x0c, 0xe5, 0xea, 0xd8, 0x20, 0x09, 0xe6, 0xd2, 0x02, 0xde,
  0xce, 0xdf, 0x0e, 0xe9, 0x0c, 0xcb, 0x07, 0xc4, 0xf5, 0x17, 0xe2, 0x16,
  0x0b, 0x0a, 0xdb, 0x81, 0xf9, 0xf5, 0xae, 0x3a, 0xf8, 0x0d, 0x2d, 0x16,
  0xdf, 0xf4, 0x11, 0xe7, 0xe8, 0xde, 0x41, 0xe9, 0xf6, 0x18, 0xdc, 0x1d,
  0xff, 0xd5, 0x1b, 0xf7, 0x18, 0x70, 0x26, 0x55, 0x1a, 0xf9, 0x09, 0xbf,
  0xfa, 0x11, 0x1c, 0x03, 0x20, 0x24, 0x27, 0x16, 0x0a, 0x18, 0x1e, 0x28,
  0x1a, 0x01, 0xf1, 0x15, 0x1c, 0xf9, 0x2c, 0xba, 0xef, 0x27, 0xf4, 0x19,
  0x16, 0xe5, 0xbf, 0xe1, 0xef, 0x24, 0x2b, 0x1a, 0x09, 0x0d, 0xd8, 0x37,
  0x7a, 0x39, 0xf6, 0xfb, 0x23, 0xd1, 0x18, 0x11, 0xf5, 0xc3, 0x2b, 0x21,
  0x23, 0x42, 0xea, 0xc8, 0xfd, 0x26, 0xd1, 0x05, 0x31, 0xe0, 0x45, 0xa5,
  0xd4, 0x2e, 0xc2, 0xed, 0x32, 0x14, 0x10, 0xf1, 0x4d, 0x29, 0x1e, 0x20,
  0xe9, 0xe8, 0x35, 0x03, 0xd2, 0x92, 0x11, 0x2a, 0x2b, 0xfd, 0x3c, 0xc1,
  0x39, 0x38, 0x35, 0x19, 0x3a, 0x20, 0x21, 0xfc, 0x20, 0x26, 0xab, 0xbd,
  0xfb, 0xf4, 0xf2, 0xff, 0xfa, 0x02, 0x12, 0xe4, 0x17, 0x08, 0x0d, 0x21,
  0xef, 0xe2, 0x04, 0x0c, 0x04, 0x1a, 0xf9, 0x07, 0x01, 0x14, 0xe9, 0xe3,
  0xfc, 0x1a, 0x18, 0x09, 0x19, 0xfd, 0x0f, 0xe4, 0x01, 0xf9, 0xf3, 0xf8,
  0x20, 0xec, 0xfc, 0x01, 0x00, 0xf8, 0xfb, 0xfc, 0xfd, 0x01, 0x07, 0xf5,
  0x06, 0x1d, 0xf1, 0x01, 0x09, 0xf9, 0x09, 0xf0, 0x00, 0xf2, 0x10, 0x2a,
  0xf6, 0xe1, 0x01, 0xe7, 0xfb, 0x0a, 0xf5, 0x0b, 0x45, 0xf6, 0x0c, 0x1a,
  0xf7, 0x13, 0x0a, 0xfb, 0x05, 0x0c, 0x1f, 0x00, 0xfa, 0x2e, 0xf6, 0xfe,
  0x05, 0xfd, 0x3a, 0x0e, 0x08, 0x32, 0xfa, 0x3d, 0x11, 0xf1, 0xf9, 0xf2,
  0xe3, 0xea, 0x2a, 0x12, 0xee, 0x14, 0x16, 0xed, 0xfe, 0x22, 0x2d, 0x0c,
  0x0d, 0x00, 0x11, 0x10, 0x08, 0xf5, 0x08, 0xe7, 0xf8, 0x17, 0xe1, 0xe7,
  0x09, 0x1c, 0xf4, 0xef, 0xf5, 0x14, 0x29, 0x2b, 0xe7, 0xeb, 0x07, 0xfa,
  0xe1, 0x07, 0x17, 0xc1, 0x0b, 0xf1, 0x1d, 0x19, 0xf7, 0xd4, 0xe6, 0x08,
  0x05, 0x03, 0xf0, 0x01, 0xed, 0x02, 0xa9, 0xc8, 0xfe, 0xee, 0x0f, 0xab,
  0x08, 0x04, 0xf5, 0xfa, 0xf3, 0xc9, 0xea, 0x08, 0xe7, 0x12, 0x11, 0xb4,
  0x09, 0xfe, 0x00, 0xfd, 0x02, 0xd8, 0xe9, 0xf2, 0x19, 0xf7, 0xdc, 0x0a,
  0xe5, 0xea, 0xc7, 0xc5, 0xf1, 0x1b, 0x09, 0x01, 0xff, 0xfe, 0x10, 0x12,
  0xe0, 0xf3, 0x1e, 0xed, 0xfb, 0x0e, 0xf7, 0x0c, 0x0f, 0x02, 0x24, 0x0f,
  0xff, 0x0e, 0xf1, 0x0c, 0xef, 0xf1, 0xff, 0xf3, 0xf7, 0x08, 0xe0, 0x05,
  0x05, 0xe6, 0xf4, 0xc2, 0xdd, 0xff, 0x0c, 0x0a, 0x01, 0x0f, 0x1b, 0x08,
  0x1c, 0x0d, 0x0e, 0x13, 0x23, 0xfd, 0x03, 0x10, 0x0c, 0x18, 0xff, 0x1f,
  0x10, 0x0e, 0xfb, 0xd1, 0xf5, 0x09, 0xe6, 0x19, 0x0a, 0x1f, 0x18, 0x81,
  0x06, 0x05, 0xf6, 0x1a, 0x13, 0xfd, 0xf2, 0xf9, 0xfa, 0x05, 0x09, 0x03,
  0xf5, 0xf0, 0xfe, 0x06, 0xec, 0xfb, 0x17, 0x04, 0xf4, 0xd7, 0xf6, 0xb6,
  0x0d, 0x08, 0x09, 0x0b, 0x06, 0x0b, 0xfc, 0x19, 0x1d, 0x05, 0xf9, 0xf5,
  0xfd, 0x08, 0x05, 0xf7, 0x11, 0xfc, 0x00, 0x27, 0x0a, 0xe2, 0x0e, 0x00,
  0x1f, 0x24, 0x02, 0xfc, 0x19, 0xf8, 0x10, 0x06, 0x06, 0x00, 0x02, 0x03,
  0x0d, 0x16, 0xf1, 0xea, 0x03, 0x10, 0x20, 0x1e, 0xf9, 0x23, 0x25, 0x04,
  0x2e, 0x1a, 0x05, 0x18, 0x1a, 0x0f, 0x0f, 0x1a, 0x03, 0x2d, 0xf0, 0x08,
  0x14, 0xfd, 0x02, 0x03, 0x06, 0x0f, 0x01, 0x10, 0x08, 0x14, 0x04, 0xcd,
  0x09, 0x15, 0x0c, 0x35, 0x11, 0x05, 0xdb, 0x1d, 0x0f, 0x08, 0xd2, 0x19,
  0xfd, 0x0a, 0xe2, 0xe6, 0xfd, 0xf0, 0x1f, 0x01, 0x07, 0x12, 0x14, 0xfc,
  0x0c, 0xf9, 0x2c, 0x1e, 0x07, 0x15, 0x27, 0x30, 0x1b, 0x02, 0xff, 0xf1,
  0xe9, 0xef, 0xd3, 0xe5, 0x81, 0xdc, 0xf7, 0xf8, 0xeb, 0xe5, 0xee, 0xe7,
  0xda, 0x09, 0xea, 0xe3, 0xdc, 0xd8, 0x03, 0xfd, 0xf3, 0xd3, 0x18, 0xda,
  0xfb, 0xf6, 0xdc, 0x1a, 0xf2, 0xd8, 0xf7, 0xd9, 0xe3, 0x26, 0x21, 0xf1,
  0xf7, 0x05, 0xf5, 0x11, 0xde, 0x10, 0xd6, 0xe3, 0xe9, 0x15, 0xfd, 0xfe,
  0xbf, 0xed, 0x0c, 0xf9, 0xe9, 0x07, 0x18, 0x1a, 0xf7, 0x1c, 0xf8, 0xf3,
  0xe0, 0xdb, 0x00, 0x0d, 0x09, 0x0d, 0xf3, 0xf7, 0x0c, 0xd5, 0xd4, 0x24,
  0xfc, 0x01, 0xfc, 0xda, 0x08, 0xf6, 0xfe, 0xf0, 0xe3, 0xd6, 0x02, 0xfd,
  0x12, 0xe7, 0x26, 0x28, 0xf8, 0xf2, 0xd1, 0x4c, 0x12, 0xe0, 0x10, 0xe8,
  0x0c, 0x0d, 0xf6, 0x17, 0x3b, 0x1f, 0x26, 0x0e, 0x18, 0xfa, 0x00, 0x15,
  0x14, 0xdf, 0x0a, 0x02, 0x28, 0x16, 0x08, 0x2d, 0xfd, 0x11, 0xf7, 0x0c,
  0x08, 0xf4, 0x08, 0xfa, 0x0e, 0x1f, 0xf5, 0xf8, 0xf3, 0xeb, 0xee, 0x00,
  0xf9, 0x23, 0x36, 0xeb, 0x04, 0xe2, 0xfc, 0x1b, 0x02, 0xfb, 0x01, 0xf7,
  0x15, 0x1b, 0xee, 0x21, 0xfa, 0xfb, 0xdf, 0xd9, 0x03, 0xe9, 0x14, 0xfd,
  0x03, 0x0c, 0xeb, 0xe5, 0xe2, 0xe1, 0xfd, 0xfa, 0x08, 0xe9, 0x13, 0xf0,
  0xe4, 0xd1, 0xe4, 0xf7, 0x00, 0x23, 0xe6, 0xeb, 0x13, 0x17, 0xd5, 0x28,
  0xe6, 0xef, 0xde, 0xf9, 0xf4, 0xd6, 0xf0, 0xfc, 0xe0, 0xed, 0xf9, 0x0d,
  0xf7, 0x0a, 0x00, 0xfa, 0x09, 0xd5, 0xd2, 0x02, 0x20, 0x42, 0xc2, 0xf8,
  0x1d, 0x05, 0x05, 0xef, 0xf7, 0xd9, 0xd5, 0x02, 0xfd, 0xf9, 0xf4, 0x0e,
  0xd8, 0xc9, 0xf0, 0xf2, 0xd1, 0x09, 0xff, 0x30, 0x54, 0xdd, 0x10, 0x13,
  0xbd, 0x1a, 0x20, 0xfe, 0xfc, 0x02, 0xe0, 0x13, 0x11, 0x02, 0x62, 0x0e,
  0x1a, 0x02, 0x13, 0xf2, 0x2e, 0x0a, 0x50, 0x08, 0x3c, 0x79, 0x19, 0x56,
  0x70, 0x30, 0x17, 0x14, 0xea, 0x16, 0x2e, 0xc8, 0xec, 0xef, 0xcf, 0x24,
  0xfe, 0x33, 0xf3, 0x27, 0xfd, 0x4b, 0xf2, 0xf6, 0x13, 0x1e, 0x17, 0x36,
  0xee, 0x0c, 0x08, 0xd7, 0xe4, 0xa9, 0xc9, 0xde, 0xe5, 0xdb, 0xff, 0x48,
  0x28, 0x2c, 0x04, 0x54, 0x7f, 0xfe, 0xdb, 0x65, 0x2f, 0xf3, 0xeb, 0xd5,
  0x5c, 0x20, 0x32, 0x19, 0x31, 0x4e, 0x0c, 0x35, 0x3c, 0x03, 0x75, 0x76,
  0x1d, 0x47, 0x4d, 0x4d, 0x3a, 0x1f, 0x18, 0xdf, 0x18, 0x03, 0xd1, 0x09,
  0xbd, 0x0b, 0x2e, 0x07, 0xf8, 0xf4, 0xf5, 0xf1, 0x00, 0xe0, 0x28, 0xdd,
  0xd1, 0xde, 0x3f, 0xa2, 0x1d, 0xe1, 0x33, 0x02, 0x1a, 0x56, 0xff, 0x56,
  0x62, 0xff, 0x1d, 0xa9, 0xdd, 0xd9, 0xd8, 0xf9, 0xa9, 0xe2, 0xdc, 0xd7,
  0xdd, 0x01, 0xf3, 0xe9, 0x1c, 0xda, 0xe5, 0xd5, 0xbc, 0xa3, 0xce, 0xa9,
  0xc8, 0xd9, 0xf3, 0xc7, 0xda, 0x44, 0xc6, 0x06, 0xd8, 0xe7, 0x29, 0xf5,
  0xe0, 0x02, 0xf5, 0xbe, 0x20, 0x90, 0xe8, 0x39, 0xfa, 0x1e, 0x04, 0xcb,
  0xd9, 0x64, 0xb0, 0xe4, 0xe5, 0x0b, 0xdf, 0x5f, 0xdf, 0xcd, 0x3a, 0x1a,
  0xc9, 0xb7, 0xc6, 0x50, 0xb7, 0xa9, 0xfc, 0x06, 0xea, 0xf6, 0xc4, 0x21,
  0x9e, 0xeb, 0xfc, 0xe6, 0xd8, 0x2e, 0xd9, 0xef, 0xec, 0xf7, 0xe1, 0xb3,
  0xf8, 0x41, 0xe3, 0x43, 0xd3, 0xda, 0x1e, 0xd4, 0xc8, 0x1e, 0x11, 0x7f,
  0x0f, 0xde, 0x27, 0xd6, 0xf5, 0xf2, 0xd5, 0xe3, 0x86, 0xf8, 0x0a, 0x0d,
  0xfa, 0xea, 0xdc, 0xb3, 0xf2, 0x40, 0x09, 0xfd, 0xd9, 0xe3, 0xde, 0x18,
  0xf7, 0xcf, 0x15, 0x02, 0x0e, 0x01, 0xf3, 0x51, 0xfb, 0xf6, 0x1a, 0xe1,
  0xf1, 0xcb, 0xbd, 0x07, 0xb0, 0x1e, 0xf1, 0xa1, 0xde, 0xf0, 0xdc, 0xfe,
  0xfe, 0xf0, 0xf4, 0xe3, 0xff, 0x1c, 0xb6, 0x2a, 0xd6, 0xdd, 0xe2, 0xcf,
  0xf6, 0xdf, 0x21, 0x00, 0xcc, 0x1c, 0x05, 0xc6, 0xc6, 0xc4, 0xbb, 0xd8,
  0x2c, 0x09, 0x1d, 0x97, 0xd7, 0xfa, 0xf9, 0x13, 0xe8, 0x97, 0xad, 0xf0,
  0xfc, 0xea, 0xd2, 0x55, 0xb1, 0xff, 0x95, 0xc0, 0xaf, 0xd1, 0xb1, 0x00,
  0xb5, 0xc5, 0xae, 0xd7, 0x25, 0xcd, 0xf0, 0x04, 0x39, 0xd2, 0x1d, 0xf7,
