#include "layer_3_bias.h"
unsigned char layer_3_bias[] = {
  0x7a, 0x96, 0x3e, 0xbd, 0xd3, 0xb6, 0x5e, 0x3c, 0xff, 0x39, 0xaa, 0x3d,
  0x16, 0x12, 0xe0, 0xbd, 0xbf, 0xe7, 0x9e, 0xbc, 0x6f, 0x02, 0x10, 0x3e,
  0x22, 0xd2, 0x8f, 0xbd, 0xe2, 0xcf, 0x05, 0xbd, 0x7c, 0xcc, 0x08, 0xbe,
  0xb3, 0x2a, 0xa8, 0x3d, 0x10, 0x11, 0x12, 0xbd, 0x39, 0x44, 0xab, 0x3c,
  0xfb, 0x1c, 0xb2, 0x3b, 0x85, 0x8a, 0xd9, 0xbc, 0x32, 0x75, 0xb3, 0xbc,
  0x94, 0x4e, 0xa1, 0xbd, 0xd2, 0x0a, 0x73, 0x3d, 0x67, 0xba, 0xb8, 0xbd,
  0x79, 0x32, 0xd4, 0x3d, 0x94, 0x31, 0xaa, 0xbd, 0xf5, 0xd3, 0xe2, 0x3c,
  0x1b, 0xb8, 0xa8, 0xbd, 0xe1, 0x72, 0xbf, 0xbb, 0x2b, 0x3a, 0x57, 0xbd,
  0x43, 0x11, 0x4e, 0xbd, 0x74, 0x30, 0x0f, 0x3e, 0xa9, 0xf8, 0x02, 0xbe,
  0x7f, 0xcf, 0x50, 0x3b, 0xe1, 0x71, 0x76, 0xbe, 0x0b, 0x50, 0x09, 0x3c,
  0x08, 0x00, 0xc9, 0xbd, 0x7b, 0x0c, 0x05, 0x3d, 0x0d, 0x1e, 0xa5, 0x3a,
  0xad, 0x3a, 0x49, 0xbd, 0x3f, 0x3c, 0xf3, 0xbd, 0x17, 0x5f, 0x2f, 0x3d,
  0x12, 0xa4, 0x13, 0x3d, 0x23, 0xde, 0xb9, 0x3c, 0x86, 0x66, 0xdb, 0xbd,
  0x7c, 0xd6, 0xed, 0xbc, 0x1e, 0xd9, 0x19, 0xbe, 0x08, 0x96, 0x0a, 0xbd,
  0x9b, 0x3b, 0xea, 0xbd, 0x20, 0x1f, 0x18, 0x3d, 0x50, 0xa6, 0x10, 0x3d,
  0xf3, 0xe5, 0xcc, 0xbd, 0x9a, 0xf3, 0x7c, 0x3b, 0x2c, 0x41, 0x75, 0xbc,
  0x84, 0xf4, 0xab, 0x3b, 0x5b, 0x29, 0x7c, 0xbd, 0xa2, 0x00, 0x88, 0xbd,
  0x8b, 0x12, 0x33, 0xbe, 0xc2, 0x05, 0xe9, 0xbd, 0x14, 0xb2, 0xf0, 0xbc,
  0xf5, 0xaf, 0x2f, 0xbd, 0x81, 0xe0, 0x01, 0x3c, 0x71, 0xe9, 0x19, 0x3e,
  0x1a, 0x1e, 0x1c, 0x3c, 0x39, 0x3e, 0xa9, 0x3c, 0xfa, 0x03, 0xbb, 0x3d,
  0x6a, 0x68, 0xfa, 0xbd, 0x1b, 0xfc, 0xa2, 0xbd, 0x64, 0xae, 0x78, 0x3c,
  0xf6, 0x04, 0x1e, 0xbb
};
unsigned int layer_3_bias_len = 256;
