#include "layer_1_bias.h"

unsigned char layer_1_bias[] = {
  0x74, 0xfd, 0x6d, 0x3b, 0xd7, 0xbb, 0x82, 0x3b, 0x2a, 0x6d, 0xc5, 0xbb,
  0x86, 0x81, 0x9d, 0x3b, 0x48, 0x24, 0x20, 0xbb, 0x45, 0x77, 0xc1, 0xbb,
  0x5f, 0xe5, 0x4a, 0xbb, 0xdf, 0x50, 0x4b, 0x3d, 0x40, 0x29, 0xdc, 0x3c,
  0xf0, 0x8e, 0xdf, 0xbb, 0x9e, 0xa7, 0x83, 0x3a, 0x49, 0x58, 0x87, 0xbd,
  0xeb, 0xb6, 0xcb, 0xbc, 0x0b, 0xbb, 0xba, 0x3d, 0x33, 0x04, 0x5a, 0x3a,
  0xd2, 0x52, 0x0f, 0xbc, 0x62, 0x5a, 0x35, 0xb9, 0xaf, 0x3f, 0xee, 0x3c,
  0x8e, 0x30, 0xcd, 0x3a, 0x09, 0x03, 0x63, 0x3d, 0x4d, 0x11, 0x57, 0x3a,
  0xfb, 0x70, 0xb9, 0x3a, 0xa6, 0xec, 0x99, 0x3b, 0x8b, 0x30, 0x33, 0x3b,
  0xec, 0x66, 0xe5, 0xbc, 0x81, 0x72, 0xd3, 0x3c, 0x72, 0x7f, 0x20, 0xbb,
  0x89, 0xd3, 0x3b, 0x3e, 0x6b, 0x06, 0xbe, 0xbc, 0xe9, 0xab, 0xc4, 0xbc,
  0x18, 0x18, 0x89, 0x3d, 0x84, 0xd5, 0xb4, 0xbc
};
unsigned int layer_1_bias_len = 128;
