#include "layer_1_bias.h"

unsigned char layer_1_bias[] = {
  0xd1, 0xfb, 0x89, 0x3d, 0x85, 0xc2, 0x2a, 0x3c, 0x19, 0x51, 0x57, 0x3d,
  0x31, 0xf0, 0x48, 0xba, 0x9d, 0x6f, 0xbc, 0x3a, 0xc7, 0x9a, 0xbe, 0x3a,
  0x7b, 0xc9, 0x1c, 0x3e, 0xb9, 0xfc, 0x8e, 0x3b, 0xbd, 0xea, 0xbd, 0x3a,
  0x3f, 0xfd, 0x92, 0x3b, 0x50, 0x7d, 0x06, 0x3e, 0xb8, 0x70, 0x19, 0x3b,
  0x26, 0xc9, 0xa6, 0x3a, 0xb7, 0x0a, 0x18, 0x3e, 0x74, 0xb1, 0x19, 0x3b,
  0xec, 0x0e, 0x15, 0x3e, 0x62, 0x68, 0xb3, 0xba, 0x51, 0x96, 0x0b, 0x3e,
  0xa0, 0xb3, 0x8c, 0x3d, 0x59, 0x3d, 0x38, 0x3e, 0x64, 0xcc, 0x80, 0xba,
  0xb5, 0xe8, 0x55, 0x3d, 0xd2, 0xa1, 0xf0, 0xba, 0xdc, 0x8e, 0x85, 0x3d,
  0x84, 0x9d, 0xcb, 0xbc, 0x22, 0x75, 0x59, 0x3e, 0x18, 0x75, 0xc0, 0x3d,
  0x52, 0xb1, 0x44, 0x3a, 0x79, 0xc7, 0x47, 0x3d, 0x6e, 0xe0, 0xdf, 0x3c,
  0x16, 0xed, 0xde, 0x3a, 0x6c, 0xbe, 0xd5, 0xba
};
unsigned int layer_1_bias_len = 128;
