#include "layer_5_weights.h"
unsigned char layer_5_weights[] = {
  0xe8, 0x1a, 0x15, 0x1a, 0x2e, 0x08, 0xeb, 0x1c, 0xcd, 0xec, 0xba, 0xd1,
  0x1f, 0xf0, 0x14, 0x16, 0x19, 0x16, 0x21, 0x0d, 0xf4, 0x0f, 0x0b, 0x17,
  0xf6, 0xdc, 0x1a, 0x0c, 0xf0, 0xf0, 0xdd, 0x0e, 0x15, 0x07, 0xf4, 0xd7,
  0xfa, 0xd5, 0x28, 0xe5, 0xdc, 0xe0, 0xfc, 0xe3, 0x07, 0xe0, 0x13, 0xe2,
  0xf1, 0xee, 0xf6, 0xf6, 0x40, 0xe3, 0x20, 0x04, 0xf4, 0xe3, 0xf9, 0xe5,
  0xea, 0x04, 0x1b, 0xf7, 0xef, 0xf6, 0xf1, 0xf9, 0xcf, 0xbc, 0xed, 0x09,
  0x06, 0xe6, 0xfe, 0xf9, 0xe2, 0x13, 0xe6, 0xec, 0x1d, 0xfa, 0xc8, 0x1f,
  0x05, 0xf8, 0xf2, 0xdd, 0x27, 0xde, 0x04, 0x21, 0xe4, 0x36, 0x2a, 0x2a,
  0xff, 0xfe, 0x14, 0xee, 0xf6, 0x1f, 0x1a, 0x12, 0x11, 0x1d, 0x0c, 0x64,
  0xeb, 0x0a, 0xe5, 0xf0, 0xfd, 0x1b, 0xd5, 0x06, 0x1b, 0x3b, 0xf1, 0x16,
  0x09, 0xf9, 0xe0, 0x02, 0xee, 0x01, 0xcc, 0xd7, 0x11, 0x26, 0x05, 0x0e,
  0xf4, 0xdf, 0x2b, 0xfa, 0x03, 0x2b, 0x0e, 0xe7, 0xe8, 0xfd, 0x0b, 0xf6,
  0xf9, 0x00, 0xea, 0xe4, 0x03, 0x06, 0xf0, 0x22, 0x27, 0x08, 0xce, 0x1b,
  0xe6, 0x08, 0xe3, 0x1c, 0xfe, 0x04, 0x12, 0xf7, 0xf5, 0x13, 0x07, 0xf1,
  0x1d, 0x05, 0xff, 0x18, 0x11, 0x12, 0xeb, 0x1e, 0xf2, 0xf4, 0x17, 0xe9,
  0xc8, 0xf3, 0xea, 0xe1, 0xb1, 0x02, 0x17, 0xe0, 0x24, 0xd5, 0xf2, 0xe8,
  0xee, 0xf4, 0xca, 0xf2, 0x03, 0x0d, 0x00, 0x04, 0x17, 0x00, 0x0f, 0xfa,
  0xf4, 0xe7, 0xf2, 0x17, 0xf7, 0x0b, 0xd6, 0xf8, 0xc6, 0x2c, 0x01, 0xfc,
  0x19, 0x31, 0xed, 0x06, 0x21, 0xec, 0x16, 0xd6, 0x16, 0x06, 0xf7, 0xcd,
  0xfc, 0xdf, 0xed, 0xec, 0xe4, 0x0c, 0x14, 0xf5, 0xc5, 0xf5, 0x1d, 0xed,
  0x01, 0x2c, 0x0f, 0x06, 0x07, 0x17, 0x10, 0xfd, 0xc9, 0x07, 0xf3, 0x0e,
  0xe1, 0x02, 0xde, 0xd1, 0xdc, 0xf8, 0xf4, 0x01, 0x0b, 0xf6, 0x2b, 0x2b,
  0x1b, 0x0d, 0x1d, 0xdf, 0xfe, 0x0c, 0xf3, 0xe0, 0x07, 0xee, 0xff, 0xfa,
  0xfc, 0x25, 0xff, 0xf3, 0x00, 0xf7, 0x02, 0x07, 0x0c, 0xf1, 0x0c, 0xee,
  0x0b, 0x1a, 0x09, 0x0d, 0xdf, 0x06, 0xfb, 0x15, 0xe9, 0xe8, 0x13, 0xef,
  0xee, 0x2b, 0x07, 0xe0, 0xda, 0xf8, 0xdd, 0x0c, 0x10, 0xfd, 0x49, 0x00,
  0xef, 0xb9, 0xbd, 0x24, 0xd2, 0xeb, 0xeb, 0x28, 0x18, 0x09, 0xe9, 0x19,
  0x02, 0x0d, 0xeb, 0x3e, 0xed, 0xc1, 0x0c, 0xda, 0x2f, 0xea, 0xfd, 0xec,
  0x04, 0xe6, 0xd8, 0x07, 0xdd, 0x32, 0xee, 0x1a, 0x1a, 0xe2, 0xfa, 0xf6,
  0xcd, 0xe6, 0x05, 0xfb, 0xd4, 0xd0, 0xec, 0xdc, 0x1c, 0xe9, 0xfb, 0xce,
  0x09, 0xfd, 0x10, 0x11, 0x16, 0xf0, 0x32, 0xe4, 0x11, 0xf6, 0x13, 0xf5,
  0x0f, 0xff, 0x0c, 0xe8, 0xea, 0x26, 0x06, 0x21, 0x1b, 0x2a, 0xd0, 0xba,
  0x26, 0xf0, 0x1c, 0x0c, 0xf9, 0xe0, 0xdc, 0x06, 0x0f, 0x0c, 0x12, 0x0d,
  0x07, 0xc9, 0x18, 0xfd, 0x0f, 0x07, 0x04, 0x11, 0x1c, 0xe4, 0xfe, 0x13,
  0x06, 0x0b, 0x08, 0xe9, 0x10, 0xe5, 0x17, 0x12, 0xff, 0xf6, 0xe2, 0xd1,
  0xff, 0x08, 0x10, 0xe9, 0x10, 0x38, 0xf9, 0xe9, 0x1d, 0x11, 0x14, 0x1b,
  0xef, 0xdf, 0x04, 0xfa, 0x29, 0x10, 0x13, 0x0a, 0x2b, 0x11, 0xe6, 0xe6,
  0xf7, 0xe3, 0xdf, 0x16, 0x05, 0xe4, 0x4a, 0xff, 0x01, 0x03, 0xf1, 0x39,
  0x10, 0x05, 0x1c, 0x09, 0x1e, 0x1f, 0xfa, 0xf4, 0xd3, 0xf7, 0xf9, 0xec,
  0xfa, 0x27, 0xd6, 0xf8, 0xf0, 0xba, 0x04, 0xeb, 0x0e, 0xd9, 0xf6, 0x1a,
  0xcf, 0xe1, 0x09, 0x20, 0x13, 0xf8, 0x0f, 0xe3, 0x21, 0x06, 0xf0, 0x1b,
  0xbc, 0xfd, 0xed, 0xec, 0xcb, 0x45, 0x09, 0xef, 0x20, 0x05, 0xda, 0x51,
  0x13, 0x60, 0x13, 0xc6, 0xfc, 0x38, 0x04, 0x0c, 0x19, 0x0a, 0x11, 0xf7,
  0x06, 0x14, 0x2e, 0xe2, 0x17, 0xf8, 0x29, 0xfe, 0xe6, 0x10, 0xc8, 0x15,
  0xf3, 0x35, 0x0c, 0x17, 0x05, 0x2e, 0xbc, 0x15, 0xf0, 0xd3, 0x1f, 0xef,
  0x21, 0xd9, 0x01, 0xdf, 0xe1, 0x1a, 0x0b, 0xf0, 0x0e, 0x0b, 0xea, 0x06,
  0x1a, 0x04, 0x03, 0xdf, 0xfd, 0x0a, 0xd6, 0xfa, 0x0a, 0x19, 0x09, 0x0d,
  0x18, 0xe0, 0x00, 0xfa, 0xda, 0x0e, 0x0e, 0x34, 0xf2, 0xf1, 0x02, 0xee,
  0x15, 0xe4, 0xfb, 0xfe, 0x10, 0xa4, 0x12, 0x0c, 0x07, 0xcd, 0xfc, 0x18,
  0xce, 0xfd, 0x07, 0xee, 0x00, 0x0c, 0x1a, 0x2e, 0xe5, 0x30, 0xe6, 0xe2,
  0x18, 0xf3, 0x26, 0x01, 0x09, 0xe4, 0xf9, 0xfa, 0xd6, 0x03, 0xfa, 0xef,
  0x0b, 0xd7, 0x0d, 0xe3, 0x01, 0x08, 0xbe, 0xf5, 0xe0, 0x09, 0xe6, 0x19,
  0xf8, 0x10, 0x08, 0xf6, 0xe5, 0xfd, 0xf0, 0xf3, 0x15, 0x08, 0x1b, 0xe3,
  0x06, 0x18, 0x15, 0x1e, 0x18, 0xf8, 0xe5, 0x06, 0x1c, 0xdf, 0xf0, 0x0e,
  0xf9, 0x10, 0xf8, 0xd4, 0x00, 0x05, 0x2f, 0xf5, 0xf6, 0xfd, 0xe7, 0xe8,
  0xd8, 0x09, 0x15, 0xeb, 0x00, 0x0e, 0xfe, 0x06, 0xfb, 0xf5, 0xd7, 0xfd,
  0x06, 0x1f, 0xf6, 0x07, 0xb8, 0x0e, 0x12, 0xfe, 0xe0, 0x24, 0xed, 0xf9,
  0x2a, 0x02, 0xfb, 0xd8, 0xf7, 0xe2, 0x1c, 0xfd, 0x2a, 0x17, 0x0b, 0xc4,
  0xdb, 0x1b, 0xfb, 0x08, 0x1b, 0x1f, 0x04, 0xd9, 0xde, 0xfe, 0x24, 0xe9,
  0x16, 0x20, 0xe0, 0x09, 0xfe, 0xe7, 0xef, 0x11, 0x1b, 0x1e, 0x1b, 0xf2,
  0xef, 0xf9, 0xdb, 0x00, 0xe3, 0xec, 0x1f, 0x06, 0x24, 0x00, 0x0a, 0xee,
  0xf3, 0x40, 0x0d, 0x15, 0x13, 0xf5, 0x08, 0x25, 0xee, 0x19, 0xff, 0x07,
  0x16, 0x18, 0x21, 0x14, 0x81, 0xe9, 0x00, 0x14, 0xe8, 0x20, 0xee, 0xf5,
  0x08, 0x09, 0xce, 0x10, 0xf0, 0xba, 0xdf, 0xd1, 0x15, 0x11, 0xfc, 0x25,
  0x1b, 0xe9, 0x02, 0xe1, 0x19, 0xf6, 0xf0, 0x05, 0x0f, 0x0a, 0x34, 0x29,
  0xd5, 0x1b, 0xea, 0x12, 0xde, 0xfd, 0xf3, 0x10, 0x02, 0xfc, 0xf5, 0xeb,
  0x10, 0xcb, 0xed, 0xfd, 0x07, 0xe0, 0x07, 0xdf, 0x13, 0xe4, 0xf8, 0x2c,
  0xfd, 0x06, 0x06, 0x1b, 0xef, 0xf8, 0x18, 0xf5, 0x04, 0xf5, 0x02, 0xf1,
  0xf2, 0x14, 0x10, 0x03, 0xeb, 0x33, 0x00, 0x0e, 0xd5, 0x24, 0x1b, 0x03,
  0xef, 0x00, 0x21, 0xee, 0xf1, 0xf2, 0x15, 0xe3, 0x25, 0x03, 0xdd, 0x2a,
  0x03, 0xfb, 0xfe, 0x05, 0xf8, 0xdc, 0x10, 0x1c, 0xea, 0x01, 0x0b, 0xec,
  0xf6, 0xd6, 0xfb, 0xe8, 0x05, 0xfa, 0xf4, 0xf8, 0x08, 0x1d, 0xe4, 0xf8,
  0xe7, 0x1f, 0x1d, 0xd2, 0x0c, 0xf8, 0xf7, 0xe3, 0x02, 0xf7, 0xee, 0xe0,
  0xfb, 0x13, 0xe4, 0x21, 0xf7, 0xee, 0xf2, 0x06, 0x04, 0x1a, 0xe9, 0x13,
  0x16, 0x1b, 0x04, 0x09, 0x0a, 0xe6, 0xd5, 0x1c, 0xf0, 0x09, 0xb2, 0x20,
  0xfe, 0xf6, 0xec, 0xd2, 0xf1, 0xf3, 0xf9, 0xe0, 0x0a, 0x16, 0xdf, 0xed,
  0x0c, 0x23, 0xe8, 0x04, 0xff, 0x1e, 0xfe, 0x12, 0xef, 0xd1, 0xf9, 0xde,
  0x11, 0x05, 0xff, 0xf8, 0xf7, 0x02, 0x17, 0xf4, 0xd3, 0xea, 0xec, 0xfd,
  0x0c, 0x08, 0xed, 0x16, 0xbc, 0xf7, 0x03, 0xef, 0x08, 0x27, 0x0d, 0xf6,
  0x0a, 0xf4, 0xf6, 0x27, 0x16, 0x07, 0xf9, 0xd4, 0x19, 0xe7, 0x0f, 0x2c,
  0xfc, 0xf9, 0xdf, 0x05, 0xf3, 0xe9, 0x24, 0xe8, 0x0f, 0x21, 0xdc, 0x02,
  0xf8, 0xde, 0xfd, 0xe5, 0x0b, 0xec, 0x15, 0x17, 0x10, 0x1f, 0xf9, 0xf4,
  0xfa, 0x17, 0xf0, 0xff, 0xf8, 0x01, 0xf6, 0x05, 0xf2, 0x08, 0xe9, 0xe7,
  0xe4, 0xfc, 0x04, 0x22, 0x08, 0x0b, 0x0a, 0xd3, 0x1d, 0x26, 0xf3, 0xfa,
  0x1d, 0xde, 0x0f, 0x0e, 0xfd, 0x11, 0x10, 0xde, 0x05, 0xf8, 0x17, 0x11,
  0x04, 0xe9, 0xf0, 0xcf, 0x0d, 0x27, 0x23, 0x05, 0xd9, 0xed, 0xcb, 0xf9,
  0xdb, 0x0f, 0xc1, 0xdc, 0xf3, 0xd0, 0x0e, 0xeb, 0x25, 0xea, 0xed, 0x14,
  0xf0, 0xce, 0x11, 0xfb, 0x0c, 0x38, 0xf1, 0xfc, 0x20, 0xfb, 0xf3, 0x0b,
  0xf6, 0x08, 0x0e, 0xdb, 0x20, 0xfc, 0xe7, 0xdd, 0xfd, 0x13, 0xff, 0xfd,
  0xf7, 0x05, 0x31, 0xf6, 0x05, 0xf5, 0x1b, 0x1d, 0xe4, 0xcf, 0x1b, 0x0a,
  0xf1, 0xda, 0xd1, 0xea, 0xef, 0x00, 0xeb, 0xf0, 0x04, 0x11, 0xe6, 0x21,
  0x13, 0xf9, 0xf1, 0x18, 0xfa, 0xc7, 0xed, 0xde, 0x03, 0xff, 0x14, 0x1f,
  0x29, 0xd6, 0xc9, 0xcb, 0x1b, 0x39, 0x15, 0x00, 0xe3, 0x03, 0x14, 0xf3,
  0x10, 0xe1, 0x30, 0x13, 0x01, 0xf9, 0xf3, 0xeb, 0xfe, 0x0c, 0xf9, 0x02,
  0x05, 0xf9, 0xec, 0xca, 0x18, 0xe0, 0x34, 0xfc, 0x08, 0x0e, 0x1b, 0x0c,
  0xd8, 0xb6, 0xef, 0xd2, 0x14, 0xdf, 0x0e, 0x1f, 0x02, 0xf8, 0xfa, 0xc2,
  0xe8, 0xfa, 0x3d, 0xe9, 0xf4, 0x23, 0x0c, 0xfa, 0x1f, 0x06, 0xfc, 0x06,
  0x0e, 0x0b, 0xed, 0x01, 0xe1, 0x06, 0x29, 0xff, 0xd3, 0x0c, 0x02, 0x09,
  0xe0, 0xf0, 0xe6, 0x1e, 0xf7, 0x02, 0x16, 0xf8, 0x04, 0xdc, 0xfb, 0x18,
  0x0f, 0x23, 0x1b, 0x15, 0x18, 0xcf, 0xf2, 0xee, 0x0a, 0x0d, 0xef, 0x09,
  0xd1, 0xee, 0xe7, 0xe7, 0x13, 0x02, 0x09, 0xd0, 0xfa, 0xdb, 0xf7, 0x0a,
  0xe4, 0x0c, 0xf0, 0x16, 0xfb, 0xe0, 0xc4, 0x12, 0xfb, 0x0e, 0xfa, 0x25,
  0x01, 0xee, 0x17, 0x02, 0xf9, 0x1d, 0x13, 0x14, 0xe3, 0x00, 0xfa, 0x0a,
  0x10, 0xde, 0xe2, 0xf4, 0xea, 0xed, 0x03, 0xfc, 0xd3, 0xe0, 0xfa, 0x07,
  0xf6, 0x06, 0x0a, 0x15, 0xd0, 0xfa, 0xf6, 0x08, 0x1c, 0xbf, 0xe5, 0x12,
  0x3b, 0x06, 0xf9, 0x15, 0xf2, 0xe6, 0xe6, 0xf2, 0x18, 0x06, 0x03, 0xf4,
  0x11, 0xc0, 0x13, 0xe3, 0x1a, 0x31, 0x26, 0xc7, 0x01, 0x15, 0xf4, 0xde,
  0xca, 0xdf, 0x27, 0xf9, 0x26, 0x10, 0xf3, 0xf7, 0xfc, 0xe8, 0xfc, 0x1c,
  0xe6, 0xe7, 0x06, 0xe4, 0xe8, 0xe8, 0x05, 0xf1, 0x07, 0x27, 0xe2, 0x0b,
  0xf5, 0x13, 0xed, 0x05, 0x05, 0x06, 0xfe, 0x01, 0x02, 0xf6, 0x0a, 0xd5,
  0x0b, 0x04, 0xf8, 0x09, 0xf3, 0x06, 0xfc, 0xec, 0x04, 0xda, 0xe6, 0xe6,
  0xf2, 0x10, 0x1b, 0x07, 0x2f, 0x17, 0x14, 0xf5, 0xf8, 0xe9, 0x12, 0xf7,
  0xfb, 0x00, 0xdc, 0x01, 0xe9, 0x48, 0xf7, 0x90, 0xef, 0x41, 0x00, 0x18,
  0x1b, 0xe1, 0xed, 0x1b, 0xdc, 0x15, 0x14, 0xe2, 0x22, 0x18, 0xf6, 0x16,
  0xec, 0x04, 0xd8, 0xfd, 0xfc, 0xd7, 0xdc, 0xe2, 0x16, 0x23, 0xf2, 0x09,
  0xde, 0x09, 0x13, 0xff, 0xf1, 0xfc, 0x2a, 0xb8, 0xe8, 0x12, 0x0f, 0xf3,
  0x11, 0xf9, 0x11, 0x03, 0x1c, 0xe9, 0x04, 0xf8, 0xbc, 0x0b, 0xdd, 0xcf,
  0x16, 0x4a, 0x17, 0x0c, 0x14, 0xe8, 0xbe, 0x11, 0xff, 0xfa, 0xfb, 0xdd,
  0x10, 0xed, 0xed, 0x0c, 0xec, 0xed, 0xf1, 0xf1, 0xfa, 0x23, 0x02, 0x1c,
  0x11, 0x13, 0xee, 0x08, 0xd9, 0x03, 0xf9, 0xe1, 0xf3, 0x15, 0xde, 0x02,
  0xfd, 0x19, 0x16, 0xef, 0xfc, 0x00, 0x03, 0x1b, 0x17, 0x05, 0xef, 0x0a,
  0xce, 0xfe, 0x10, 0xf8, 0x0a, 0x13, 0x02, 0x02, 0x01, 0x11, 0x0a, 0x05,
  0xdd, 0x26, 0x0f, 0xee, 0x13, 0xf9, 0x01, 0xfa, 0x19, 0x14, 0xc6, 0xff,
  0x00, 0x06, 0xf4, 0xf6, 0xe3, 0x1a, 0x07, 0x08, 0xf0, 0xec, 0xe3, 0xdb,
  0x1d, 0x17, 0xed, 0x02, 0xd7, 0x02, 0x20, 0xf8, 0x00, 0x03, 0xfc, 0xf4,
  0x22, 0x1a, 0x03, 0xf5, 0xe2, 0xf8, 0x05, 0xdc, 0x10, 0xe9, 0xdd, 0xfb,
  0xf8, 0x29, 0x02, 0xdb, 0x00, 0x1b, 0x04, 0x01, 0x02, 0xd7, 0x03, 0x26,
  0xf3, 0x1f, 0x1a, 0xf9, 0x05, 0x2a, 0x15, 0x1a, 0xf6, 0xfa, 0x08, 0x03,
  0xb6, 0x09, 0xa4, 0x26, 0x0b, 0x46, 0xfe, 0x05, 0xce, 0xf3, 0xb8, 0xd1,
  0x1c, 0xef, 0x19, 0xd3, 0xfc, 0xd6, 0xf2, 0xc1, 0xfd, 0x01, 0x0a, 0x22,
  0xd3, 0x04, 0xf4, 0x19, 0xe5, 0x0d, 0x04, 0x1d, 0xda, 0xbf, 0x1e, 0xa0,
  0xee, 0xc7, 0xd7, 0xdb, 0x25, 0xec, 0xf3, 0x06, 0xf0, 0x14, 0x2b, 0xdc,
  0x0b, 0x1d, 0x12, 0x1c, 0xfa, 0xf2, 0x1c, 0xe3, 0x1a, 0xe1, 0x20, 0x12,
  0x05, 0xfe, 0xe9, 0x16, 0x19, 0xfc, 0xdf, 0xe1, 0xe3, 0x30, 0x07, 0xed,
  0xf1, 0x46, 0x03, 0xfe, 0xfa, 0x11, 0xd7, 0xec, 0xef, 0x21, 0x0f, 0xcd,
  0xff, 0xed, 0xc9, 0x11, 0xf3, 0xe2, 0xf5, 0xfa, 0xdc, 0xf1, 0x19, 0xf2,
  0x0b, 0xfc, 0xe7, 0xe6, 0xf3, 0x14, 0xdc, 0xff, 0x1c, 0x09, 0x11, 0xdf,
  0xfe, 0x1c, 0xe2, 0xec, 0xfd, 0xf4, 0x19, 0x29, 0xe3, 0xd8, 0x0e, 0xdb,
  0x27, 0xd6, 0xf1, 0x0e, 0xe6, 0x29, 0x45, 0xd5, 0xdb, 0x22, 0x13, 0xf3,
  0x0c, 0xe7, 0x13, 0x17, 0xea, 0xed, 0x10, 0x28, 0x0a, 0x0c, 0x0d, 0x18,
  0x1a, 0xd9, 0x17, 0x04, 0xec, 0xf5, 0xf1, 0x00, 0x04, 0x1a, 0xf3, 0x00,
  0xfd, 0x14, 0xef, 0x07, 0x14, 0xf1, 0xe9, 0xf9, 0xe8, 0x21, 0x15, 0x0b,
  0x10, 0xd8, 0xeb, 0xf0, 0x03, 0x0f, 0xf0, 0x15, 0xdf, 0x06, 0xfd, 0xd4,
  0xbd, 0x09, 0xef, 0x20, 0xc7, 0x0d, 0x12, 0x04, 0x0e, 0xef, 0x03, 0xed,
  0x06, 0xfe, 0xee, 0xf2, 0x03, 0xfb, 0xfc, 0xf5, 0x17, 0xed, 0x00, 0x01,
  0xce, 0x15, 0xf2, 0x23, 0x18, 0x04, 0x1c, 0x0b, 0xbf, 0x05, 0x17, 0x12,
  0x22, 0x37, 0xde, 0x06, 0x1b, 0x09, 0xf7, 0xf8, 0x22, 0x1d, 0xf3, 0xce,
  0xfa, 0x14, 0x0c, 0xf6, 0xd9, 0x0c, 0xfb, 0x0d, 0xa7, 0xe1, 0x19, 0x04,
  0xfb, 0xd6, 0x1d, 0xf7, 0xf1, 0xfd, 0xf5, 0xe2, 0x03, 0x10, 0xf1, 0xde,
  0x1d, 0xc6, 0xf2, 0x02, 0x1d, 0xd8, 0x27, 0x01, 0x4f, 0xca, 0x18, 0xde,
  0x13, 0xf6, 0x26, 0x11, 0xef, 0xf1, 0xe9, 0x15, 0xde, 0xf7, 0xf8, 0x19,
  0x04, 0x0d, 0x1b, 0xef, 0xee, 0xe3, 0x00, 0x1d, 0xf1, 0x13, 0xed, 0xf0,
  0x0f, 0x12, 0xff, 0x0d, 0x02, 0x08, 0xff, 0xe9, 0x04, 0x2f, 0x15, 0xe3,
  0xf7, 0xf7, 0xf2, 0x14, 0x04, 0x08, 0xed, 0x0f, 0x09, 0xea, 0x04, 0x21,
  0xd6, 0xee, 0xff, 0xcd, 0x00, 0x23, 0xf2, 0x0c, 0xe6, 0xdd, 0x1c, 0x0f,
  0xd2, 0xdb, 0x0f, 0x0a, 0x0f, 0xd7, 0xe6, 0xe0, 0xfc, 0x00, 0x17, 0x0a,
  0x1b, 0xe2, 0xe9, 0xff, 0x08, 0x12, 0x11, 0xe7, 0xeb, 0x1e, 0x0b, 0x05,
  0x12, 0xf2, 0x19, 0xff, 0xfa, 0x09, 0x10, 0x38, 0x04, 0x0e, 0x05, 0x11,
  0x1b, 0xed, 0xca, 0x07, 0xe6, 0xec, 0xfe, 0xf9, 0x18, 0xeb, 0x0b, 0xf5,
  0x07, 0xb7, 0x07, 0x0a, 0x22, 0x1a, 0xe9, 0x0a, 0xee, 0xf1, 0x1a, 0x10,
  0x0e, 0xf4, 0x1a, 0xea, 0xd6, 0x25, 0xf6, 0x18, 0xe1, 0xaf, 0x07, 0x0c,
  0xfa, 0x04, 0x02, 0xf3, 0xe9, 0xfd, 0x06, 0x01, 0x00, 0xe7, 0xe0, 0x1c,
  0xfc, 0xeb, 0x20, 0xf4, 0x0b, 0xee, 0x18, 0xe5, 0xf5, 0xff, 0xdf, 0xea,
  0x29, 0x1a, 0x04, 0xe9, 0x03, 0xe2, 0x1f, 0xda, 0x04, 0x2d, 0x06, 0xdd,
  0x0c, 0xe8, 0xfe, 0x10, 0x30, 0x03, 0x07, 0xe3, 0x1d, 0x07, 0xe2, 0x1b,
  0xde, 0x14, 0x10, 0x14, 0xfb, 0x17, 0x0a, 0xfa, 0x2c, 0xe7, 0xd3, 0xe1,
  0xeb, 0xea, 0xfa, 0xdc, 0x29, 0x28, 0xfb, 0xf5, 0xdc, 0xeb, 0x32, 0xe3,
  0xfb, 0xe6, 0xe1, 0xff, 0xe0, 0xe8, 0x09, 0xf1, 0xef, 0x0a, 0xcd, 0xdc,
  0x0d, 0xee, 0x0f, 0xe9, 0x17, 0xf5, 0x1d, 0x03, 0x02, 0xd4, 0xea, 0x08,
  0xf7, 0x08, 0xf0, 0xe2, 0x19, 0x37, 0xe3, 0x0f, 0xf2, 0xea, 0xef, 0x1b,
  0x00, 0xd9, 0xf9, 0x12, 0x02, 0x17, 0x20, 0xcf, 0x0d, 0x12, 0xff, 0x0e,
  0xfd, 0x18, 0xff, 0xe3, 0xf2, 0xf1, 0x00, 0x1f, 0xe3, 0xe8, 0xf1, 0x08,
  0x0b, 0xfa, 0x04, 0xf2, 0x0a, 0x0b, 0x03, 0xf2, 0x1b, 0x13, 0x0c, 0x0a,
  0x05, 0x05, 0x0a, 0x19, 0xdf, 0x0c, 0xf7, 0x09, 0x01, 0x15, 0xf8, 0x25,
  0x09, 0x09, 0x1a, 0x1d, 0x04, 0x18, 0xd1, 0x0a, 0xe0, 0xf9, 0xf8, 0xe8,
  0xe9, 0xfc, 0xae, 0xf1, 0x01, 0x2c, 0x0b, 0xff, 0x1a, 0xed, 0xe9, 0x07,
  0xfc, 0x16, 0xfb, 0xdd, 0xf1, 0x1f, 0x0a, 0xf8, 0x07, 0x05, 0xf5, 0x03,
  0x0f, 0xe7, 0x1a, 0xed, 0x00, 0x11, 0xf7, 0x1e, 0x07, 0xfc, 0x10, 0xfe,
  0xe8, 0xf3, 0xec, 0xf5, 0x02, 0x05, 0xed, 0xdd, 0x33, 0x0c, 0x13, 0xe2,
  0xe7, 0xf9, 0x10, 0xfb, 0x0f, 0x0e, 0x0e, 0x9c, 0x07, 0xed, 0x01, 0x00,
  0xf1, 0x12, 0x1a, 0xff, 0x13, 0x2f, 0xe4, 0x16, 0xf8, 0xfb, 0x17, 0xec,
  0xfd, 0xd1, 0xeb, 0xe8, 0xdc, 0xdc, 0x1f, 0x08, 0x0e, 0xf4, 0xc9, 0xd6,
  0x10, 0x14, 0x01, 0xe4, 0x1e, 0x0b, 0x10, 0x18, 0xf9, 0xe0, 0xea, 0x07,
  0x16, 0xf0, 0x0b, 0x03, 0x1f, 0x17, 0xef, 0xeb, 0x04, 0xf2, 0xe6, 0x08,
  0x0f, 0xf4, 0x15, 0x03, 0x21, 0xe5, 0xd9, 0x0b, 0x02, 0xd4, 0xf3, 0x25,
  0x3a, 0xec, 0x0a, 0xfc, 0x20, 0xf5, 0x02, 0x15, 0xe4, 0x09, 0xee, 0xff,
  0x06, 0xeb, 0x05, 0x09, 0xeb, 0xe1, 0x13, 0xc6, 0x07, 0x18, 0x0d, 0x1a,
  0xde, 0xef, 0x1a, 0x26, 0x0d, 0x15, 0xd0, 0xfd, 0xd8, 0xef, 0xe8, 0xea,
  0xf5, 0xf0, 0x1f, 0xfc, 0x24, 0xf6, 0x0b, 0xf7, 0xdb, 0xca, 0xe4, 0x03,
  0xeb, 0xf1, 0x20, 0x1c, 0xed, 0x1d, 0xe9, 0x12, 0xef, 0x0c, 0xd6, 0xf6,
  0xee, 0x0b, 0xef, 0x0b, 0x0a, 0x1b, 0x15, 0xf7, 0x0f, 0xc8, 0xeb, 0x01,
  0xf5, 0xe6, 0x15, 0xf0, 0xfe, 0xe1, 0x10, 0xf2, 0x06, 0x86, 0x2e, 0x0a,
  0x05, 0xf0, 0x11, 0x00, 0xbe, 0xf3, 0xff, 0xf7, 0xdc, 0xfb, 0xdd, 0xf7,
  0x2b, 0xfa, 0x07, 0x0a, 0x0f, 0x10, 0xe9, 0x0f, 0xe6, 0xd2, 0xf4, 0x0a,
  0xfc, 0x17, 0xe4, 0xf9, 0xcd, 0x00, 0xfd, 0x1f, 0x22, 0x11, 0xf0, 0x2a,
  0x10, 0x1e, 0x24, 0xf0, 0x00, 0xf2, 0xcb, 0x1f, 0x03, 0xcb, 0x09, 0x06,
  0xf8, 0x07, 0x0f, 0xf2, 0xce, 0xe6, 0xa1, 0x07, 0x0a, 0x27, 0x03, 0xfc,
  0x14, 0xe9, 0xee, 0xf0, 0x11, 0x04, 0xfd, 0x0a, 0xfe, 0xf8, 0xf0, 0xd7,
  0x12, 0xfa, 0xf9, 0x03, 0x0a, 0x1b, 0x0a, 0xfa, 0xfa, 0xfa, 0x0a, 0x0c,
  0xfd, 0xc1, 0x00, 0x11, 0xde, 0xe1, 0xce, 0x16, 0x1b, 0x26, 0xc8, 0x22,
  0xe7, 0xfd, 0xf2, 0xde, 0x0d, 0x0a, 0xee, 0x23, 0x02, 0x00, 0x18, 0xf6,
  0x08, 0xfd, 0xe5, 0xd7, 0xe5, 0x07, 0xe6, 0xf9, 0x0c, 0x01, 0x2f, 0x1f,
  0x02, 0xd0, 0x28, 0x0a, 0xe0, 0xe6, 0xf2, 0x01, 0xec, 0x03, 0xf3, 0xe2,
  0xf9, 0x20, 0x21, 0x06, 0x1d, 0xd2, 0xfa, 0xf3, 0xe8, 0x04, 0xdf, 0xf4,
  0x13, 0xfe, 0x1b, 0xf2, 0x16, 0x00, 0xed, 0xe9, 0x03, 0x1a, 0x1e, 0x18,
  0x15, 0x1f, 0x08, 0xe3, 0xe3, 0xee, 0xfa, 0x16, 0x2b, 0xf1, 0xeb, 0x02,
  0x05, 0x0b, 0x18, 0xd9, 0xc0, 0xf7, 0x07, 0x0b, 0xf3, 0x07, 0x0b, 0x19,
  0xe3, 0xf2, 0xfa, 0x21, 0x00, 0xbb, 0xe5, 0x17, 0xd5, 0x1b, 0x18, 0xfc,
  0xf7, 0xef, 0xfa, 0xff, 0xda, 0xec, 0xec, 0xec, 0xe1, 0xfe, 0x20, 0x10,
  0x1d, 0xef, 0x08, 0x15, 0xf2, 0xf6, 0xe3, 0x16, 0x0b, 0xd9, 0xfb, 0x0f,
  0xf7, 0xec, 0x12, 0xfb, 0xf1, 0xb7, 0x02, 0xe4, 0xd9, 0xdc, 0x26, 0x21,
  0x12, 0x14, 0xe2, 0xee, 0x18, 0xe6, 0x0c, 0xf6, 0x3b, 0x09, 0xee, 0x0f,
  0x19, 0xe6, 0xf0, 0xe5, 0x1b, 0xde, 0xe0, 0xfd, 0x21, 0x13, 0xf7, 0x20,
  0x13, 0x24, 0xdf, 0xf5
};
unsigned int layer_5_weights_len = 2560;
